{
  "version": "1.0",
  "truncation": null,
  "padding": null,
  "added_tokens": [
    {
      "id": 0,
      "content": "[UNK]",
      "single_word": false,
      "lstrip": false,
      "rstrip": false,
      "normalized": false,
      "special": true
    }
  ],
  "normalizer": null,
  "pre_tokenizer": null,
  "post_processor": null,
  "decoder": null,
  "model": {
    "type": "BPE",
    "dropout": null,
    "unk_token": null,
    "continuing_subword_prefix": "",
    "end_of_word_suffix": "",
    "fuse_unk": false,
    "vocab": {
      "[UNK]": 0,
      "'": 1,
      ".": 2,
      "0": 3,
      "1": 4,
      "2": 5,
      "3": 6,
      "4": 7,
      "5": 8,
      "6": 9,
      "7": 10,
      "8": 11,
      "9": 12,
      "a": 13,
      "b": 14,
      "c": 15,
      "d": 16,
      "e": 17,
      "f": 18,
      "g": 19,
      "h": 20,
      "i": 21,
      "j": 22,
      "k": 23,
      "l": 24,
      "m": 25,
      "n": 26,
      "o": 27,
      "p": 28,
      "q": 29,
      "r": 30,
      "s": 31,
      "t": 32,
      "u": 33,
      "v": 34,
      "w": 35,
      "x": 36,
      "y": 37,
      "z": 38,
      "th": 39,
      "in": 40,
      "the": 41,
      "an": 42,
      "re": 43,
      "on": 44,
      "er": 45,
      "at": 46,
      "en": 47,
      "ou": 48,
      "or": 49,
      "is": 50,
      "ed": 51,
      "al": 52,
      "of": 53,
      "to": 54,
      "es": 55,
      "as": 56,
      "it": 57,
      "and": 58,
      "ar": 59,
      "ing": 60,
      "st": 61,
      "ic": 62,
      "le": 63,
      "ion": 64,
      "ro": 65,
      "se": 66,
      "he": 67,
      "be": 68,
      "ent": 69,
      "ly": 70,
      "ch": 71,
      "ve": 72,
      "me": 73,
      "il": 74,
      "ad": 75,
      "wh": 76,
      "for": 77,
      "ac": 78,
      "no": 79,
      "id": 80,
      "co": 81,
      "we": 82,
      "that": 83,
      "lo": 84,
      "ay": 85,
      "gh": 86,
      "su": 87,
      "so": 88,
      "ut": 89,
      "ver": 90,
      "was": 91,
      "ld": 92,
      "ir": 93,
      "un": 94,
      "you": 95,
      "li": 96,
      "de": 97,
      "ce": 98,
      "ter": 99,
      "con": 100,
      "ation": 101,
      "are": 102,
      "wi": 103,
      "ab": 104,
      "ct": 105,
      "'s": 106,
      "mp": 107,
      "ri": 108,
      "ge": 109,
      "with": 110,
      "ha": 111,
      "mo": 112,
      "po": 113,
      "pe": 114,
      "ur": 115,
      "do": 116,
      "ne": 117,
      "pro": 118,
      "te": 119,
      "ho": 120,
      "ke": 121,
      "ment": 122,
      "us": 123,
      "ul": 124,
      "fe": 125,
      "all": 126,
      "ra": 127,
      "go": 128,
      "if": 129,
      "ther": 130,
      "by": 131,
      "ill": 132,
      "ght": 133,
      "out": 134,
      "res": 135,
      "one": 136,
      "ti": 137,
      "ex": 138,
      "ould": 139,
      "per": 140,
      "ll": 141,
      "not": 142,
      "but": 143,
      "oun": 144,
      "our": 145,
      "ain": 146,
      "am": 147,
      "ess": 148,
      "have": 149,
      "qu": 150,
      "ts": 151,
      "this": 152,
      "ate": 153,
      "his": 154,
      "rom": 155,
      "ag": 156,
      "man": 157,
      "tr": 158,
      "ap": 159,
      "had": 160,
      "from": 161,
      "ers": 162,
      "im": 163,
      "they": 164,
      "pl": 165,
      "ich": 166,
      "she": 167,
      "sh": 168,
      "sa": 169,
      "red": 170,
      "bo": 171,
      "wor": 172,
      "est": 173,
      "art": 174,
      "which": 175,
      "her": 176,
      "ard": 177,
      "ity": 178,
      "si": 179,
      "there": 180,
      "ant": 181,
      "up": 182,
      "ci": 183,
      "ust": 184,
      "ye": 185,
      "now": 186,
      "end": 187,
      "act": 188,
      "ca": 189,
      "n'": 190,
      "n't": 191,
      "were": 192,
      "ind": 193,
      "fo": 194,
      "ive": 195,
      "ist": 196,
      "ally": 197,
      "cl": 198,
      "com": 199,
      "ort": 200,
      "op": 201,
      "wn": 202,
      "wo": 203,
      "ie": 204,
      "some": 205,
      "has": 206,
      "od": 207,
      "ta": 208,
      "ma": 209,
      "can": 210,
      "ies": 211,
      "who": 212,
      "ous": 213,
      "king": 214,
      "ast": 215,
      "ren": 216,
      "will": 217,
      "been": 218,
      "comp": 219,
      "ide": 220,
      "ack": 221,
      "their": 222,
      "mb": 223,
      "ound": 224,
      "way": 225,
      "other": 226,
      "ish": 227,
      "ine": 228,
      "what": 229,
      "would": 230,
      "pr": 231,
      "ice": 232,
      "ig": 233,
      "ough": 234,
      "der": 235,
      "able": 236,
      "af": 237,
      "iv": 238,
      "any": 239,
      "br": 240,
      "ure": 241,
      "ol": 242,
      "ok": 243,
      "its": 244,
      "ud": 245,
      "more": 246,
      "use": 247,
      "mar": 248,
      "here": 249,
      "ty": 250,
      "sp": 251,
      "ions": 252,
      "age": 253,
      "ev": 254,
      "my": 255,
      "low": 256,
      "ong": 257,
      "dis": 258,
      "when": 259,
      "very": 260,
      "gr": 261,
      "part": 262,
      "thing": 263,
      "ree": 264,
      "ms": 265,
      "min": 266,
      "see": 267,
      "ach": 268,
      "ated": 269,
      "them": 270,
      "pp": 271,
      "said": 272,
      "ence": 273,
      "new": 274,
      "about": 275,
      "off": 276,
      "ight": 277,
      "cent": 278,
      "over": 279,
      "like": 280,
      "bl": 281,
      "day": 282,
      "pre": 283,
      "him": 284,
      "ary": 285,
      "pres": 286,
      "ser": 287,
      "know": 288,
      "ance": 289,
      "ting": 290,
      "year": 291,
      "ical": 292,
      "ble": 293,
      "pos": 294,
      "ace": 295,
      "time": 296,
      "du": 297,
      "str": 298,
      "form": 299,
      "comm": 300,
      "coun": 301,
      "well": 302,
      "ite": 303,
      "than": 304,
      "work": 305,
      "ass": 306,
      "ans": 307,
      "ire": 308,
      "spe": 309,
      "how": 310,
      "cont": 311,
      "ck": 312,
      "fir": 313,
      "ted": 314,
      "av": 315,
      "el": 316,
      "then": 317,
      "two": 318,
      "imp": 319,
      "into": 320,
      "could": 321,
      "cre": 322,
      "ade": 323,
      "ction": 324,
      "ste": 325,
      "cor": 326,
      "fore": 327,
      "only": 328,
      "ful": 329,
      "sel": 330,
      "just": 331,
      "your": 332,
      "ations": 333,
      "ang": 334,
      "jo": 335,
      "ph": 336,
      "get": 337,
      "ps": 338,
      "um": 339,
      "may": 340,
      "ition": 341,
      "int": 342,
      "la": 343,
      "par": 344,
      "lit": 345,
      "right": 346,
      "did": 347,
      "ink": 348,
      "bet": 349,
      "land": 350,
      "where": 351,
      "hi": 352,
      "ase": 353,
      "cess": 354,
      "most": 355,
      "ef": 356,
      "ater": 357,
      "cr": 358,
      "ild": 359,
      "after": 360,
      "des": 361,
      "car": 362,
      "say": 363,
      "first": 364,
      "om": 365,
      "back": 366,
      "air": 367,
      "mber": 368,
      "ten": 369,
      "under": 370,
      "gre": 371,
      "these": 372,
      "come": 373,
      "also": 374,
      "ople": 375,
      "beca": 376,
      "ces": 377,
      "people": 378,
      "ry": 379,
      "ved": 380,
      "ning": 381,
      "med": 382,
      "je": 383,
      "ial": 384,
      "son": 385,
      "mon": 386,
      "tur": 387,
      "should": 388,
      "dif": 389,
      "gu": 390,
      "gen": 391,
      "fin": 392,
      "inter": 393,
      "cial": 394,
      "ick": 395,
      "ise": 396,
      "cho": 397,
      "sy": 398,
      "again": 399,
      "ory": 400,
      "ward": 401,
      "self": 402,
      "ah": 403,
      "ious": 404,
      "au": 405,
      "ile": 406,
      "cer": 407,
      "pt": 408,
      "ced": 409,
      "ments": 410,
      "read": 411,
      "mu": 412,
      "ned": 413,
      "tain": 414,
      "such": 415,
      "down": 416,
      "icul": 417,
      "even": 418,
      "yes": 419,
      "ors": 420,
      "ought": 421,
      "bu": 422,
      "ose": 423,
      "men": 424,
      "feren": 425,
      "cur": 426,
      "thr": 427,
      "cour": 428,
      "fl": 429,
      "ving": 430,
      "mat": 431,
      "rest": 432,
      "col": 433,
      "pri": 434,
      "because": 435,
      "ia": 436,
      "tra": 437,
      "nor": 438,
      "ue": 439,
      "ob": 440,
      "good": 441,
      "ak": 442,
      "many": 443,
      "look": 444,
      "sub": 445,
      "vis": 446,
      "side": 447,
      "eng": 448,
      "used": 449,
      "cal": 450,
      "put": 451,
      "got": 452,
      "cle": 453,
      "et": 454,
      "sur": 455,
      "need": 456,
      "less": 457,
      "sion": 458,
      "tle": 459,
      "long": 460,
      "ves": 461,
      "gra": 462,
      "fr": 463,
      "made": 464,
      "through": 465,
      "les": 466,
      "led": 467,
      "think": 468,
      "ange": 469,
      "pu": 470,
      "ational": 471,
      "port": 472,
      "try": 473,
      "reg": 474,
      "arly": 475,
      "ject": 476,
      "ip": 477,
      "lect": 478,
      "ween": 479,
      "much": 480,
      "row": 481,
      "sm": 482,
      "between": 483,
      "being": 484,
      "own": 485,
      "rel": 486,
      "main": 487,
      "che": 488,
      "years": 489,
      "ual": 490,
      "mr": 491,
      "pa": 492,
      "set": 493,
      "na": 494,
      "those": 495,
      "fect": 496,
      "ber": 497,
      "though": 498,
      "iz": 499,
      "'ve": 500,
      "ily": 501,
      "let": 502,
      "before": 503,
      "ities": 504,
      "sed": 505,
      "three": 506,
      "ian": 507,
      "cond": 508,
      "hand": 509,
      "serv": 510,
      "sto": 511,
      "ents": 512,
      "ep": 513,
      "char": 514,
      "mis": 515,
      "val": 516,
      "high": 517,
      "stand": 518,
      "ict": 519,
      "ative": 520,
      "yeah": 521,
      "vie": 522,
      "tal": 523,
      "sho": 524,
      "clo": 525,
      "inte": 526,
      "tim": 527,
      "ates": 528,
      "ton": 529,
      "produ": 530,
      "want": 531,
      "'re": 532,
      "every": 533,
      "ft": 534,
      "ond": 535,
      "fact": 536,
      "pol": 537,
      "fa": 538,
      "gn": 539,
      "log": 540,
      "last": 541,
      "make": 542,
      "tri": 543,
      "old": 544,
      "inv": 545,
      "nu": 546,
      "head": 547,
      "ating": 548,
      "ss": 549,
      "hel": 550,
      "emp": 551,
      "mer": 552,
      "gover": 553,
      "publ": 554,
      "play": 555,
      "child": 556,
      "gg": 557,
      "cy": 558,
      "und": 559,
      "lt": 560,
      "gan": 561,
      "take": 562,
      "peri": 563,
      "gener": 564,
      "ks": 565,
      "ific": 566,
      "call": 567,
      "supp": 568,
      "war": 569,
      "wer": 570,
      "ident": 571,
      "add": 572,
      "oh": 573,
      "wr": 574,
      "still": 575,
      "ied": 576,
      "llow": 577,
      "ouse": 578,
      "cri": 579,
      "amp": 580,
      "velo": 581,
      "tre": 582,
      "light": 583,
      "govern": 584,
      "differen": 585,
      "vo": 586,
      "must": 587,
      "stru": 588,
      "cons": 589,
      "pect": 590,
      "xt": 591,
      "went": 592,
      "fer": 593,
      "pat": 594,
      "sing": 595,
      "ked": 596,
      "too": 597,
      "bas": 598,
      "dy": 599,
      "'ll": 600,
      "leg": 601,
      "develo": 602,
      "stud": 603,
      "both": 604,
      "arch": 605,
      "dec": 606,
      "national": 607,
      "ters": 608,
      "ken": 609,
      "does": 610,
      "far": 611,
      "house": 612,
      "ven": 613,
      "ility": 614,
      "ger": 615,
      "lar": 616,
      "sen": 617,
      "going": 618,
      "present": 619,
      "syste": 620,
      "giv": 621,
      "ways": 622,
      "develop": 623,
      "bro": 624,
      "ple": 625,
      "att": 626,
      "ign": 627,
      "grou": 628,
      "ings": 629,
      "mor": 630,
      "brit": 631,
      "government": 632,
      "vel": 633,
      "life": 634,
      "cas": 635,
      "erm": 636,
      "als": 637,
      "world": 638,
      "little": 639,
      "wee": 640,
      "prov": 641,
      "cus": 642,
      "ures": 643,
      "view": 644,
      "incl": 645,
      "'m": 646,
      "sure": 647,
      "oc": 648,
      "ds": 649,
      "bus": 650,
      "ga": 651,
      "ited": 652,
      "'d": 653,
      "soci": 654,
      "dra": 655,
      "four": 656,
      "plan": 657,
      "ince": 658,
      "mean": 659,
      "same": 660,
      "requ": 661,
      "while": 662,
      "appe": 663,
      "ared": 664,
      "might": 665,
      "ath": 666,
      "each": 667,
      "ris": 668,
      "never": 669,
      "howe": 670,
      "ices": 671,
      "bre": 672,
      "thought": 673,
      "place": 674,
      "ys": 675,
      "ness": 676,
      "however": 677,
      "ket": 678,
      "ason": 679,
      "fam": 680,
      "found": 681,
      "show": 682,
      "cap": 683,
      "another": 684,
      "follow": 685,
      "dire": 686,
      "ner": 687,
      "public": 688,
      "mm": 689,
      "ised": 690,
      "person": 691,
      "interest": 692,
      "scho": 693,
      "dr": 694,
      "vers": 695,
      "bed": 696,
      "gl": 697,
      "school": 698,
      "proble": 699,
      "ital": 700,
      "cept": 701,
      "mal": 702,
      "ably": 703,
      "unt": 704,
      "win": 705,
      "home": 706,
      "ban": 707,
      "great": 708,
      "resp": 709,
      "second": 710,
      "ord": 711,
      "state": 712,
      "open": 713,
      "sol": 714,
      "temp": 715,
      "sible": 716,
      "appro": 717,
      "against": 718,
      "real": 719,
      "bar": 720,
      "ics": 721,
      "wal": 722,
      "ling": 723,
      "find": 724,
      "sit": 725,
      "cul": 726,
      "sco": 727,
      "minis": 728,
      "uring": 729,
      "tern": 730,
      "bur": 731,
      "app": 732,
      "lish": 733,
      "import": 734,
      "care": 735,
      "course": 736,
      "lead": 737,
      "hal": 738,
      "small": 739,
      "point": 740,
      "effect": 741,
      "dist": 742,
      "help": 743,
      "sk": 744,
      "ot": 745,
      "cut": 746,
      "cord": 747,
      "commun": 748,
      "den": 749,
      "night": 750,
      "particul": 751,
      "fur": 752,
      "ear": 753,
      "since": 754,
      "aim": 755,
      "body": 756,
      "happ": 757,
      "kes": 758,
      "times": 759,
      "something": 760,
      "thor": 761,
      "bit": 762,
      "oper": 763,
      "away": 764,
      "ins": 765,
      "run": 766,
      "number": 767,
      "iness": 768,
      "incre": 769,
      "wa": 770,
      "ually": 771,
      "social": 772,
      "direct": 773,
      "different": 774,
      "hu": 775,
      "local": 776,
      "inform": 777,
      "mbers": 778,
      "uc": 779,
      "start": 780,
      "why": 781,
      "ism": 782,
      "quest": 783,
      "exp": 784,
      "ists": 785,
      "case": 786,
      "pul": 787,
      "ff": 788,
      "sign": 789,
      "vent": 790,
      "ider": 791,
      "book": 792,
      "left": 793,
      "polit": 794,
      "eu": 795,
      "fri": 796,
      "contro": 797,
      "sal": 798,
      "turn": 799,
      "certain": 800,
      "contin": 801,
      "prof": 802,
      "wards": 803,
      "ress": 804,
      "io": 805,
      "law": 806,
      "face": 807,
      "six": 808,
      "children": 809,
      "ens": 810,
      "pay": 811,
      "cu": 812,
      "organ": 813,
      "ross": 814,
      "dep": 815,
      "hold": 816,
      "ution": 817,
      "really": 818,
      "feel": 819,
      "acti": 820,
      "resu": 821,
      "inst": 822,
      "loy": 823,
      "ages": 824,
      "came": 825,
      "class": 826,
      "five": 827,
      "within": 828,
      "ided": 829,
      "var": 830,
      "whe": 831,
      "trans": 832,
      "ield": 833,
      "give": 834,
      "ched": 835,
      "next": 836,
      "system": 837,
      "eas": 838,
      "water": 839,
      "without": 840,
      "room": 841,
      "group": 842,
      "nat": 843,
      "always": 844,
      "ben": 845,
      "beli": 846,
      "vi": 847,
      "hard": 848,
      "ru": 849,
      "equ": 850,
      "uni": 851,
      "ready": 852,
      "econ": 853,
      "round": 854,
      "comple": 855,
      "outh": 856,
      "ants": 857,
      "ties": 858,
      "few": 859,
      "around": 860,
      "power": 861,
      "ley": 862,
      "week": 863,
      "during": 864,
      "large": 865,
      "ls": 866,
      "ref": 867,
      "examp": 868,
      "order": 869,
      "half": 870,
      "general": 871,
      "month": 872,
      "includ": 873,
      "mid": 874,
      "suc": 875,
      "although": 876,
      "tion": 877,
      "search": 878,
      "pur": 879,
      "euro": 880,
      "given": 881,
      "cost": 882,
      "mone": 883,
      "party": 884,
      "sive": 885,
      "company": 886,
      "rather": 887,
      "change": 888,
      "experi": 889,
      "maj": 890,
      "business": 891,
      "reason": 892,
      "move": 893,
      "ze": 894,
      "youn": 895,
      "friend": 896,
      "thir": 897,
      "ju": 898,
      "mill": 899,
      "hn": 900,
      "level": 901,
      "things": 902,
      "chang": 903,
      "ham": 904,
      "har": 905,
      "ically": 906,
      "line": 907,
      "important": 908,
      "fig": 909,
      "mit": 910,
      "ail": 911,
      "lin": 912,
      "ash": 913,
      "aren": 914,
      "author": 915,
      "struct": 916,
      "writ": 917,
      "vir": 918,
      "lot": 919,
      "tell": 920,
      "mind": 921,
      "ended": 922,
      "until": 923,
      "report": 924,
      "cil": 925,
      "quite": 926,
      "ann": 927,
      "later": 928,
      "cou": 929,
      "support": 930,
      "europe": 931,
      "por": 932,
      "ient": 933,
      "says": 934,
      "ged": 935,
      "major": 936,
      "issu": 937,
      "tech": 938,
      "que": 939,
      "action": 940,
      "vious": 941,
      "john": 942,
      "further": 943,
      "top": 944,
      "fac": 945,
      "women": 946,
      "indust": 947,
      "information": 948,
      "expect": 949,
      "pract": 950,
      "ches": 951,
      "clear": 952,
      "member": 953,
      "ship": 954,
      "amer": 955,
      "sat": 956,
      "dri": 957,
      "mil": 958,
      "often": 959,
      "contr": 960,
      "adv": 961,
      "mas": 962,
      "took": 963,
      "ons": 964,
      "ford": 965,
      "ately": 966,
      "aff": 967,
      "concer": 968,
      "process": 969,
      "allow": 970,
      "tor": 971,
      "alth": 972,
      "elect": 973,
      "taken": 974,
      "centr": 975,
      "money": 976,
      "lab": 977,
      "ute": 978,
      "seen": 979,
      "once": 980,
      "road": 981,
      "position": 982,
      "simp": 983,
      "commit": 984,
      "build": 985,
      "ished": 986,
      "blo": 987,
      "def": 988,
      "pped": 989,
      "big": 990,
      "invol": 991,
      "pass": 992,
      "polic": 993,
      "called": 994,
      "diff": 995,
      "consider": 996,
      "ury": 997,
      "ours": 998,
      "offic": 999,
      "ars": 1000,
      "country": 1001,
      "best": 1002,
      "ei": 1003,
      "tail": 1004,
      "mi": 1005,
      "sim": 1006,
      "lu": 1007,
      "british": 1008,
      "example": 1009,
      "depend": 1010,
      "young": 1011,
      "fort": 1012,
      "educ": 1013,
      "members": 1014,
      "lond": 1015,
      "employ": 1016,
      "ever": 1017,
      "teen": 1018,
      "london": 1019,
      "told": 1020,
      "sum": 1021,
      "success": 1022,
      "whether": 1023,
      "rent": 1024,
      "better": 1025,
      "vol": 1026,
      "keep": 1027,
      "train": 1028,
      "having": 1029,
      "field": 1030,
      "os": 1031,
      "area": 1032,
      "respon": 1033,
      "done": 1034,
      "poin": 1035,
      "claim": 1036,
      "ivid": 1037,
      "council": 1038,
      "ground": 1039,
      "difficul": 1040,
      "cli": 1041,
      "days": 1042,
      "list": 1043,
      "mic": 1044,
      "full": 1045,
      "sugg": 1046,
      "const": 1047,
      "bal": 1048,
      "subject": 1049,
      "family": 1050,
      "ional": 1051,
      "yet": 1052,
      "sun": 1053,
      "teach": 1054,
      "market": 1055,
      "early": 1056,
      "accoun": 1057,
      "black": 1058,
      "haps": 1059,
      "possible": 1060,
      "turned": 1061,
      "sc": 1062,
      "pot": 1063,
      "progra": 1064,
      "perhaps": 1065,
      "idence": 1066,
      "ele": 1067,
      "lic": 1068,
      "remain": 1069,
      "ried": 1070,
      "fun": 1071,
      "toge": 1072,
      "development": 1073,
      "together": 1074,
      "already": 1075,
      "dou": 1076,
      "econom": 1077,
      "oking": 1078,
      "looked": 1079,
      "working": 1080,
      "kind": 1081,
      "reco": 1082,
      "logy": 1083,
      "special": 1084,
      "ability": 1085,
      "sha": 1086,
      "range": 1087,
      "job": 1088,
      "qual": 1089,
      "manag": 1090,
      "nothing": 1091,
      "wel": 1092,
      "dar": 1093,
      "ened": 1094,
      "ired": 1095,
      "fully": 1096,
      "mus": 1097,
      "spect": 1098,
      "gy": 1099,
      "service": 1100,
      "increas": 1101,
      "bor": 1102,
      "test": 1103,
      "prob": 1104,
      "prin": 1105,
      "short": 1106,
      "ware": 1107,
      "using": 1108,
      "question": 1109,
      "known": 1110,
      "gin": 1111,
      "wat": 1112,
      "mother": 1113,
      "ude": 1114,
      "post": 1115,
      "usu": 1116,
      "deal": 1117,
      "free": 1118,
      "ont": 1119,
      "americ": 1120,
      "ural": 1121,
      "making": 1122,
      "ards": 1123,
      "asked": 1124,
      "enough": 1125,
      "sib": 1126,
      "grow": 1127,
      "court": 1128,
      "research": 1129,
      "met": 1130,
      "descri": 1131,
      "ances": 1132,
      "whole": 1133,
      "ric": 1134,
      "tee": 1135,
      "police": 1136,
      "political": 1137,
      "di": 1138,
      "ives": 1139,
      "won": 1140,
      "almost": 1141,
      "coming": 1142,
      "sw": 1143,
      "cup": 1144,
      "pen": 1145,
      "love": 1146,
      "least": 1147,
      "ides": 1148,
      "ones": 1149,
      "graph": 1150,
      "nine": 1151,
      "ision": 1152,
      "ub": 1153,
      "avail": 1154,
      "plac": 1155,
      "tax": 1156,
      "ising": 1157,
      "period": 1158,
      "rece": 1159,
      "ames": 1160,
      "north": 1161,
      "become": 1162,
      "ask": 1163,
      "health": 1164,
      "sent": 1165,
      "ith": 1166,
      "individ": 1167,
      "mand": 1168,
      "south": 1169,
      "pain": 1170,
      "control": 1171,
      "fil": 1172,
      "non": 1173,
      "popul": 1174,
      "ined": 1175,
      "ush": 1176,
      "tt": 1177,
      "name": 1178,
      "sort": 1179,
      "problem": 1180,
      "door": 1181,
      "west": 1182,
      "himself": 1183,
      "particular": 1184,
      "lig": 1185,
      "cir": 1186,
      "trad": 1187,
      "priv": 1188,
      "past": 1189,
      "itions": 1190,
      "bir": 1191,
      "plain": 1192,
      "continu": 1193,
      "proper": 1194,
      "inde": 1195,
      "hor": 1196,
      "likely": 1197,
      "wood": 1198,
      "held": 1199,
      "necess": 1200,
      "secre": 1201,
      "individual": 1202,
      "white": 1203,
      "mental": 1204,
      "mag": 1205,
      "eting": 1206,
      "selves": 1207,
      "jud": 1208,
      "close": 1209,
      "wil": 1210,
      "doing": 1211,
      "abo": 1212,
      "looking": 1213,
      "ni": 1214,
      "ribut": 1215,
      "labour": 1216,
      "argu": 1217,
      "recent": 1218,
      "ats": 1219,
      "sil": 1220,
      "socie": 1221,
      "eyes": 1222,
      "relation": 1223,
      "aring": 1224,
      "plic": 1225,
      "product": 1226,
      "chur": 1227,
      "others": 1228,
      "record": 1229,
      "spec": 1230,
      "anything": 1231,
      "agree": 1232,
      "available": 1233,
      "understand": 1234,
      "hy": 1235,
      "saw": 1236,
      "flo": 1237,
      "roy": 1238,
      "lear": 1239,
      "gir": 1240,
      "towards": 1241,
      "policy": 1242,
      "problems": 1243,
      "suggest": 1244,
      "either": 1245,
      "fall": 1246,
      "sex": 1247,
      "based": 1248,
      "sequ": 1249,
      "da": 1250,
      "rad": 1251,
      "manage": 1252,
      "pal": 1253,
      "depart": 1254,
      "activ": 1255,
      "father": 1256,
      "flu": 1257,
      "lay": 1258,
      "among": 1259,
      "cell": 1260,
      "along": 1261,
      "share": 1262,
      "fi": 1263,
      "crit": 1264,
      "anti": 1265,
      "fund": 1266,
      "ently": 1267,
      "vision": 1268,
      "thus": 1269,
      "following": 1270,
      "eve": 1271,
      "terms": 1272,
      "ane": 1273,
      "probably": 1274,
      "anal": 1275,
      "div": 1276,
      "tom": 1277,
      "discus": 1278,
      "means": 1279,
      "felt": 1280,
      "million": 1281,
      "dro": 1282,
      "stat": 1283,
      "education": 1284,
      "god": 1285,
      "comes": 1286,
      "represent": 1287,
      "minister": 1288,
      "associ": 1289,
      "inc": 1290,
      "estab": 1291,
      "meeting": 1292,
      "human": 1293,
      "strong": 1294,
      "today": 1295,
      "ank": 1296,
      "sever": 1297,
      "tele": 1298,
      "conf": 1299,
      "pose": 1300,
      "paper": 1301,
      "fail": 1302,
      "ency": 1303,
      "exist": 1304,
      "lang": 1305,
      "words": 1306,
      "else": 1307,
      "town": 1308,
      "establish": 1309,
      "colle": 1310,
      "hol": 1311,
      "city": 1312,
      "posed": 1313,
      "actually": 1314,
      "lea": 1315,
      "sell": 1316,
      "hind": 1317,
      "front": 1318,
      "hon": 1319,
      "regul": 1320,
      "sci": 1321,
      "above": 1322,
      "office": 1323,
      "taking": 1324,
      "ib": 1325,
      "ses": 1326,
      "net": 1327,
      "ending": 1328,
      "prote": 1329,
      "ified": 1330,
      "britain": 1331,
      "stra": 1332,
      "ying": 1333,
      "simil": 1334,
      "services": 1335,
      "rich": 1336,
      "ws": 1337,
      "chair": 1338,
      "secret": 1339,
      "medi": 1340,
      "economic": 1341,
      "compan": 1342,
      "english": 1343,
      "table": 1344,
      "eight": 1345,
      "fut": 1346,
      "ster": 1347,
      "reach": 1348,
      "ctor": 1349,
      "stree": 1350,
      "sound": 1351,
      "ential": 1352,
      "word": 1353,
      "rele": 1354,
      "ived": 1355,
      "band": 1356,
      "expres": 1357,
      "envir": 1358,
      "staff": 1359,
      "detail": 1360,
      "ized": 1361,
      "months": 1362,
      "profess": 1363,
      "key": 1364,
      "environ": 1365,
      "ues": 1366,
      "century": 1367,
      "cat": 1368,
      "treat": 1369,
      "centre": 1370,
      "common": 1371,
      "team": 1372,
      "dat": 1373,
      "mode": 1374,
      "approach": 1375,
      "mark": 1376,
      "ines": 1377,
      "across": 1378,
      "woman": 1379,
      "including": 1380,
      "knew": 1381,
      "board": 1382,
      "wall": 1383,
      "jun": 1384,
      "object": 1385,
      "twent": 1386,
      "lied": 1387,
      "sl": 1388,
      "bill": 1389,
      "live": 1390,
      "oft": 1391,
      "voice": 1392,
      "ference": 1393,
      "society": 1394,
      "sense": 1395,
      "program": 1396,
      "term": 1397,
      "ences": 1398,
      "tory": 1399,
      "several": 1400,
      "sor": 1401,
      "upon": 1402,
      "reed": 1403,
      "comput": 1404,
      "mater": 1405,
      "ges": 1406,
      "orig": 1407,
      "bank": 1408,
      "areas": 1409,
      "mes": 1410,
      "church": 1411,
      "rate": 1412,
      "community": 1413,
      "itch": 1414,
      "itself": 1415,
      "recogn": 1416,
      "paren": 1417,
      "project": 1418,
      "cover": 1419,
      "ext": 1420,
      "third": 1421,
      "charac": 1422,
      "force": 1423,
      "hund": 1424,
      "cra": 1425,
      "england": 1426,
      "pes": 1427,
      "redu": 1428,
      "wait": 1429,
      "themselves": 1430,
      "wide": 1431,
      "hundred": 1432,
      "ering": 1433,
      "international": 1434,
      "therefore": 1435,
      "moment": 1436,
      "current": 1437,
      "death": 1438,
      "wanted": 1439,
      "langu": 1440,
      "univers": 1441,
      "intro": 1442,
      "cast": 1443,
      "impro": 1444,
      "tru": 1445,
      "camp": 1446,
      "fair": 1447,
      "tic": 1448,
      "lat": 1449,
      "demand": 1450,
      "bad": 1451,
      "ii": 1452,
      "benef": 1453,
      "ison": 1454,
      "behind": 1455,
      "ped": 1456,
      "aut": 1457,
      "late": 1458,
      "began": 1459,
      "east": 1460,
      "near": 1461,
      "result": 1462,
      "future": 1463,
      "visit": 1464,
      "matter": 1465,
      "uation": 1466,
      "tered": 1467,
      "attemp": 1468,
      "bri": 1469,
      "introdu": 1470,
      "management": 1471,
      "uk": 1472,
      "ron": 1473,
      "provide": 1474,
      "cro": 1475,
      "dam": 1476,
      "study": 1477,
      "gar": 1478,
      "ention": 1479,
      "meth": 1480,
      "worth": 1481,
      "meas": 1482,
      "seemed": 1483,
      "gave": 1484,
      "spo": 1485,
      "ago": 1486,
      "fra": 1487,
      "accord": 1488,
      "soon": 1489,
      "achie": 1490,
      "mary": 1491,
      "speak": 1492,
      "lies": 1493,
      "hosp": 1494,
      "central": 1495,
      "logical": 1496,
      "personal": 1497,
      "break": 1498,
      "became": 1499,
      "bt": 1500,
      "food": 1501,
      "complete": 1502,
      "hous": 1503,
      "particularly": 1504,
      "signific": 1505,
      "difficult": 1506,
      "firm": 1507,
      "club": 1508,
      "consu": 1509,
      "shall": 1510,
      "vil": 1511,
      "material": 1512,
      "sup": 1513,
      "feat": 1514,
      "hope": 1515,
      "p.": 1516,
      "termin": 1517,
      "bel": 1518,
      "resul": 1519,
      "fif": 1520,
      "mach": 1521,
      "green": 1522,
      "experience": 1523,
      "lia": 1524,
      "cially": 1525,
      "type": 1526,
      "stead": 1527,
      "utes": 1528,
      "origin": 1529,
      "idea": 1530,
      "cing": 1531,
      "outside": 1532,
      "evidence": 1533,
      "ball": 1534,
      "soft": 1535,
      "union": 1536,
      "morning": 1537,
      "lled": 1538,
      "mrs": 1539,
      "seven": 1540,
      "design": 1541,
      "ible": 1542,
      "uary": 1543,
      "ator": 1544,
      "pan": 1545,
      "trade": 1546,
      "training": 1547,
      "midd": 1548,
      "lad": 1549,
      "rain": 1550,
      "text": 1551,
      "event": 1552,
      "date": 1553,
      "account": 1554,
      "seems": 1555,
      "hip": 1556,
      "begin": 1557,
      "european": 1558,
      "chap": 1559,
      "ret": 1560,
      "cies": 1561,
      "respect": 1562,
      "compet": 1563,
      "twenty": 1564,
      "believe": 1565,
      "ier": 1566,
      "lord": 1567,
      "arm": 1568,
      "dav": 1569,
      "isation": 1570,
      "getting": 1571,
      "fit": 1572,
      "ler": 1573,
      "ries": 1574,
      "stay": 1575,
      "acc": 1576,
      "amoun": 1577,
      "section": 1578,
      "super": 1579,
      "princi": 1580,
      "applic": 1581,
      "acy": 1582,
      "building": 1583,
      "illed": 1584,
      "bring": 1585,
      "em": 1586,
      "ests": 1587,
      "similar": 1588,
      "defin": 1589,
      "sis": 1590,
      "ult": 1591,
      "contain": 1592,
      "instit": 1593,
      "thin": 1594,
      "cos": 1595,
      "finan": 1596,
      "lier": 1597,
      "changes": 1598,
      "single": 1599,
      "return": 1600,
      "fire": 1601,
      "pound": 1602,
      "itor": 1603,
      "industry": 1604,
      "lim": 1605,
      "itional": 1606,
      "invest": 1607,
      "needs": 1608,
      "stri": 1609,
      "sometimes": 1610,
      "ring": 1611,
      "foot": 1612,
      "loc": 1613,
      "leave": 1614,
      "remember": 1615,
      "pie": 1616,
      "former": 1617,
      "president": 1618,
      "heav": 1619,
      "quick": 1620,
      "united": 1621,
      "ening": 1622,
      "usually": 1623,
      "moved": 1624,
      "ians": 1625,
      "brought": 1626,
      "ients": 1627,
      "street": 1628,
      "quar": 1629,
      "groups": 1630,
      "involved": 1631,
      "necessary": 1632,
      "appear": 1633,
      "heard": 1634,
      "shire": 1635,
      "phil": 1636,
      "init": 1637,
      "flow": 1638,
      "draw": 1639,
      "committee": 1640,
      "windo": 1641,
      "squ": 1642,
      "rench": 1643,
      "yester": 1644,
      "az": 1645,
      "male": 1646,
      "price": 1647,
      "expected": 1648,
      "gone": 1649,
      "sche": 1650,
      "yesterday": 1651,
      "bat": 1652,
      "ox": 1653,
      "whose": 1654,
      "rid": 1655,
      "safe": 1656,
      "chris": 1657,
      "character": 1658,
      "sty": 1659,
      "history": 1660,
      "ilt": 1661,
      "blood": 1662,
      "vered": 1663,
      "language": 1664,
      "role": 1665,
      "jan": 1666,
      "capital": 1667,
      "lost": 1668,
      "explain": 1669,
      "obvious": 1670,
      "sir": 1671,
      "moder": 1672,
      "fast": 1673,
      "ordin": 1674,
      "ching": 1675,
      "py": 1676,
      "previous": 1677,
      "itive": 1678,
      "tries": 1679,
      "method": 1680,
      "vill": 1681,
      "issue": 1682,
      "rul": 1683,
      "gs": 1684,
      "wish": 1685,
      "data": 1686,
      "cases": 1687,
      "ming": 1688,
      "gree": 1689,
      "specific": 1690,
      "pho": 1691,
      "cru": 1692,
      "bul": 1693,
      "value": 1694,
      "indic": 1695,
      "coura": 1696,
      "total": 1697,
      "anger": 1698,
      "states": 1699,
      "ny": 1700,
      "boy": 1701,
      "joy": 1702,
      "ceed": 1703,
      "phone": 1704,
      "airs": 1705,
      "pret": 1706,
      "ffic": 1707,
      "ker": 1708,
      "decision": 1709,
      "hours": 1710,
      "ustr": 1711,
      "exam": 1712,
      "programme": 1713,
      "ow": 1714,
      "ners": 1715,
      "indeed": 1716,
      "systems": 1717,
      "certainly": 1718,
      "authority": 1719,
      "serious": 1720,
      "french": 1721,
      "true": 1722,
      "ilities": 1723,
      "liber": 1724,
      "demo": 1725,
      "pict": 1726,
      "fav": 1727,
      "award": 1728,
      "tro": 1729,
      "hands": 1730,
      "chan": 1731,
      "gard": 1732,
      "anim": 1733,
      "lands": 1734,
      "ctions": 1735,
      "stage": 1736,
      "lying": 1737,
      "companies": 1738,
      "ery": 1739,
      "private": 1740,
      "saying": 1741,
      "according": 1742,
      "final": 1743,
      "sess": 1744,
      "nature": 1745,
      "brid": 1746,
      "cks": 1747,
      "thre": 1748,
      "star": 1749,
      "fish": 1750,
      "figure": 1751,
      "ledge": 1752,
      "trying": 1753,
      "regard": 1754,
      "someone": 1755,
      "wife": 1756,
      "everything": 1757,
      "ased": 1758,
      "hear": 1759,
      "sea": 1760,
      "dom": 1761,
      "enter": 1762,
      "aud": 1763,
      "pack": 1764,
      "cked": 1765,
      "accept": 1766,
      "works": 1767,
      "minutes": 1768,
      "active": 1769,
      "ips": 1770,
      "department": 1771,
      "influ": 1772,
      "istic": 1773,
      "offe": 1774,
      "foreign": 1775,
      "arri": 1776,
      "quality": 1777,
      "espe": 1778,
      "patients": 1779,
      "forward": 1780,
      "don": 1781,
      "hall": 1782,
      "mur": 1783,
      "sport": 1784,
      "sle": 1785,
      "buy": 1786,
      "american": 1787,
      "ging": 1788,
      "secur": 1789,
      "especially": 1790,
      "music": 1791,
      "lie": 1792,
      "contract": 1793,
      "simply": 1794,
      "independ": 1795,
      "employment": 1796,
      "desp": 1797,
      "ils": 1798,
      "dark": 1799,
      "heart": 1800,
      "practice": 1801,
      "except": 1802,
      "lau": 1803,
      "hen": 1804,
      "pping": 1805,
      "hun": 1806,
      "cep": 1807,
      "decl": 1808,
      "rist": 1809,
      "sibility": 1810,
      "iday": 1811,
      "ream": 1812,
      "hair": 1813,
      "tar": 1814,
      "chance": 1815,
      "ources": 1816,
      "wrong": 1817,
      "production": 1818,
      "bb": 1819,
      "separ": 1820,
      "assu": 1821,
      "occur": 1822,
      "subst": 1823,
      "forms": 1824,
      "wind": 1825,
      "spir": 1826,
      "living": 1827,
      "provided": 1828,
      "miss": 1829,
      "stu": 1830,
      "ization": 1831,
      "ded": 1832,
      "increase": 1833,
      "surpr": 1834,
      "march": 1835,
      "loss": 1836,
      "talk": 1837,
      "started": 1838,
      "makes": 1839,
      "significant": 1840,
      "respond": 1841,
      "paid": 1842,
      "lor": 1843,
      "ghter": 1844,
      "tel": 1845,
      "secretary": 1846,
      "cross": 1847,
      "leav": 1848,
      "offer": 1849,
      "parents": 1850,
      "financial": 1851,
      "ran": 1852,
      "gent": 1853,
      "seem": 1854,
      "longer": 1855,
      "girl": 1856,
      "gon": 1857,
      "thern": 1858,
      "countries": 1859,
      "attack": 1860,
      "constit": 1861,
      "ina": 1862,
      "legal": 1863,
      "tly": 1864,
      "aged": 1865,
      "gas": 1866,
      "higher": 1867,
      "official": 1868,
      "university": 1869,
      "ination": 1870,
      "due": 1871,
      "portun": 1872,
      "spr": 1873,
      "opportun": 1874,
      "earlier": 1875,
      "slow": 1876,
      "vict": 1877,
      "christ": 1878,
      "ills": 1879,
      "bot": 1880,
      "trust": 1881,
      "ener": 1882,
      "suf": 1883,
      "rect": 1884,
      "immedi": 1885,
      "required": 1886,
      "lling": 1887,
      "rep": 1888,
      "computer": 1889,
      "news": 1890,
      "bes": 1891,
      "nic": 1892,
      "usion": 1893,
      "ril": 1894,
      "collect": 1895,
      "xed": 1896,
      "tit": 1897,
      "concerned": 1898,
      "sud": 1899,
      "yor": 1900,
      "lines": 1901,
      "ories": 1902,
      "ids": 1903,
      "techno": 1904,
      "ior": 1905,
      "needed": 1906,
      "modern": 1907,
      "nal": 1908,
      "cise": 1909,
      "rac": 1910,
      "deep": 1911,
      "nei": 1912,
      "kets": 1913,
      "rial": 1914,
      "ney": 1915,
      "lif": 1916,
      "amount": 1917,
      "require": 1918,
      "hospital": 1919,
      "carry": 1920,
      "gain": 1921,
      "iding": 1922,
      "famil": 1923,
      "middle": 1924,
      "natural": 1925,
      "commis": 1926,
      "royal": 1927,
      "suit": 1928,
      "mod": 1929,
      "answer": 1930,
      "poor": 1931,
      "die": 1932,
      "easy": 1933,
      "herself": 1934,
      "thous": 1935,
      "situation": 1936,
      "link": 1937,
      "emb": 1938,
      "stop": 1939,
      "david": 1940,
      "tend": 1941,
      "added": 1942,
      "box": 1943,
      "ously": 1944,
      "thousand": 1945,
      "contribut": 1946,
      "various": 1947,
      "smo": 1948,
      "forman": 1949,
      "uses": 1950,
      "occas": 1951,
      "bert": 1952,
      "covered": 1953,
      "pointed": 1954,
      "manager": 1955,
      "dered": 1956,
      "broad": 1957,
      "scot": 1958,
      "announ": 1959,
      "ief": 1960,
      "corpor": 1961,
      "conditions": 1962,
      "ured": 1963,
      "schools": 1964,
      "aware": 1965,
      "wed": 1966,
      "arr": 1967,
      "ene": 1968,
      "ture": 1969,
      "pick": 1970,
      "iled": 1971,
      "bey": 1972,
      "fle": 1973,
      "comb": 1974,
      "assess": 1975,
      "results": 1976,
      "workers": 1977,
      "effective": 1978,
      "acqu": 1979,
      "vic": 1980,
      "beha": 1981,
      "scre": 1982,
      "greater": 1983,
      "conserv": 1984,
      "rus": 1985,
      "access": 1986,
      "points": 1987,
      "game": 1988,
      "motion": 1989,
      "decided": 1990,
      "affect": 1991,
      "sudden": 1992,
      "costs": 1993,
      "strate": 1994,
      "tran": 1995,
      "built": 1996,
      "include": 1997,
      "tained": 1998,
      "analys": 1999,
      "gold": 2000,
      "ec": 2001,
      "favour": 2002,
      "engine": 2003,
      "weeks": 2004,
      "friends": 2005,
      "nes": 2006,
      "phys": 2007,
      "attr": 2008,
      "placed": 2009,
      "dut": 2010,
      "extra": 2011,
      "clearly": 2012,
      "april": 2013,
      "vey": 2014,
      "operation": 2015,
      "goes": 2016,
      "performan": 2017,
      "hur": 2018,
      "gest": 2019,
      "knowledge": 2020,
      "viet": 2021,
      "dead": 2022,
      "encoura": 2023,
      "appropri": 2024,
      "series": 2025,
      "communic": 2026,
      "bi": 2027,
      "shown": 2028,
      "commission": 2029,
      "pattern": 2030,
      "june": 2031,
      "increasing": 2032,
      "tour": 2033,
      "died": 2034,
      "shop": 2035,
      "bra": 2036,
      "matic": 2037,
      "grad": 2038,
      "normal": 2039,
      "letter": 2040,
      "exe": 2041,
      "vert": 2042,
      "determin": 2043,
      "mr.": 2044,
      "emer": 2045,
      "agreed": 2046,
      "described": 2047,
      "hus": 2048,
      "tig": 2049,
      "pers": 2050,
      "reli": 2051,
      "roo": 2052,
      "space": 2053,
      "conne": 2054,
      "atives": 2055,
      "parlia": 2056,
      "colour": 2057,
      "planning": 2058,
      "nice": 2059,
      "ricul": 2060,
      "york": 2061,
      "chapter": 2062,
      "standing": 2063,
      "chief": 2064,
      "tou": 2065,
      "ressed": 2066,
      "unch": 2067,
      "students": 2068,
      "jour": 2069,
      "democr": 2070,
      "gress": 2071,
      "bud": 2072,
      "ba": 2073,
      "written": 2074,
      "atic": 2075,
      "coll": 2076,
      "ature": 2077,
      "e.": 2078,
      "rap": 2079,
      "prep": 2080,
      "sold": 2081,
      "standard": 2082,
      "imag": 2083,
      "wes": 2084,
      "pool": 2085,
      "tried": 2086,
      "basis": 2087,
      "satis": 2088,
      "followed": 2089,
      "bab": 2090,
      "despite": 2091,
      "exer": 2092,
      "instead": 2093,
      "rail": 2094,
      "ns": 2095,
      "omy": 2096,
      "grand": 2097,
      "believ": 2098,
      "anyone": 2099,
      "photo": 2100,
      "below": 2101,
      "aug": 2102,
      "mul": 2103,
      "structure": 2104,
      "parliament": 2105,
      "psy": 2106,
      "ises": 2107,
      "domin": 2108,
      "doubt": 2109,
      "security": 2110,
      "charge": 2111,
      "acts": 2112,
      "season": 2113,
      "books": 2114,
      "behavi": 2115,
      "formed": 2116,
      "ify": 2117,
      "iff": 2118,
      "german": 2119,
      "ror": 2120,
      "milit": 2121,
      "asse": 2122,
      "wonder": 2123,
      "moun": 2124,
      "press": 2125,
      "concl": 2126,
      "gri": 2127,
      "igned": 2128,
      "running": 2129,
      "questions": 2130,
      "icip": 2131,
      "ught": 2132,
      "beaut": 2133,
      "agreement": 2134,
      "wise": 2135,
      "industrial": 2136,
      "ferred": 2137,
      "fine": 2138,
      "size": 2139,
      "explo": 2140,
      "fic": 2141,
      "inves": 2142,
      "cred": 2143,
      "ially": 2144,
      "gun": 2145,
      "simple": 2146,
      "please": 2147,
      "hit": 2148,
      "story": 2149,
      "card": 2150,
      "ports": 2151,
      "nel": 2152,
      "played": 2153,
      "swe": 2154,
      "deb": 2155,
      "environment": 2156,
      "cold": 2157,
      "investig": 2158,
      "geor": 2159,
      "liver": 2160,
      "meet": 2161,
      "produced": 2162,
      "analysis": 2163,
      "fu": 2164,
      "execut": 2165,
      "kept": 2166,
      "concentr": 2167,
      "alone": 2168,
      "inside": 2169,
      "sou": 2170,
      "relative": 2171,
      "scal": 2172,
      "appeared": 2173,
      "occup": 2174,
      "mouth": 2175,
      "mess": 2176,
      "ague": 2177,
      "mc": 2178,
      "studies": 2179,
      "cum": 2180,
      "behaviour": 2181,
      "paul": 2182,
      "reported": 2183,
      "cab": 2184,
      "growth": 2185,
      "appeal": 2186,
      "ale": 2187,
      "plant": 2188,
      "grant": 2189,
      "carried": 2190,
      "fight": 2191,
      "model": 2192,
      "sidered": 2193,
      "considered": 2194,
      "altern": 2195,
      "farm": 2196,
      "histor": 2197,
      "hour": 2198,
      "ators": 2199,
      "attention": 2200,
      "feet": 2201,
      "review": 2202,
      "performance": 2203,
      "enjoy": 2204,
      "civil": 2205,
      "vement": 2206,
      "movement": 2207,
      "cause": 2208,
      "happy": 2209,
      "cit": 2210,
      "rely": 2211,
      "thinking": 2212,
      "scott": 2213,
      "population": 2214,
      "tw": 2215,
      "avo": 2216,
      "changed": 2217,
      "xim": 2218,
      "rose": 2219,
      "advant": 2220,
      "weight": 2221,
      "glass": 2222,
      "propos": 2223,
      "aries": 2224,
      "evening": 2225,
      "ification": 2226,
      "rights": 2227,
      "adminis": 2228,
      "aver": 2229,
      "threat": 2230,
      "anced": 2231,
      "lower": 2232,
      "director": 2233,
      "function": 2234,
      "orts": 2235,
      "stone": 2236,
      "nam": 2237,
      "risk": 2238,
      "happened": 2239,
      "clean": 2240,
      "straight": 2241,
      "giving": 2242,
      "ends": 2243,
      "received": 2244,
      "station": 2245,
      "docu": 2246,
      "jap": 2247,
      "scotland": 2248,
      "assist": 2249,
      "mac": 2250,
      "ese": 2251,
      "peter": 2252,
      "issues": 2253,
      "ered": 2254,
      "brother": 2255,
      "park": 2256,
      "talking": 2257,
      "exact": 2258,
      "mir": 2259,
      "increased": 2260,
      "reading": 2261,
      "worked": 2262,
      "japan": 2263,
      "afric": 2264,
      "mem": 2265,
      "theory": 2266,
      "liam": 2267,
      "din": 2268,
      "stock": 2269,
      "eye": 2270,
      "authorities": 2271,
      "c.": 2272,
      "campa": 2273,
      "developed": 2274,
      "wash": 2275,
      "apparen": 2276,
      "relationship": 2277,
      "whate": 2278,
      "parts": 2279,
      "popular": 2280,
      "whatever": 2281,
      "tu": 2282,
      "writing": 2283,
      "wers": 2284,
      "bridge": 2285,
      "everyone": 2286,
      "manu": 2287,
      "thank": 2288,
      "style": 2289,
      "mission": 2290,
      "liter": 2291,
      "parties": 2292,
      "ships": 2293,
      "reflect": 2294,
      "property": 2295,
      "appropriate": 2296,
      "frequ": 2297,
      "note": 2298,
      "established": 2299,
      "complex": 2300,
      "beginning": 2301,
      "rup": 2302,
      "fortun": 2303,
      "bour": 2304,
      "trou": 2305,
      "whom": 2306,
      "continued": 2307,
      "leading": 2308,
      "energy": 2309,
      "ables": 2310,
      "feeling": 2311,
      "ease": 2312,
      "icle": 2313,
      "cted": 2314,
      "finally": 2315,
      "unit": 2316,
      "bon": 2317,
      "bs": 2318,
      "surv": 2319,
      "champ": 2320,
      "allowed": 2321,
      "rs": 2322,
      "pup": 2323,
      "v.": 2324,
      "income": 2325,
      "peace": 2326,
      "treatment": 2327,
      "slight": 2328,
      "prime": 2329,
      "william": 2330,
      "mitted": 2331,
      "repe": 2332,
      "oud": 2333,
      "floor": 2334,
      "france": 2335,
      "ize": 2336,
      "bound": 2337,
      "chairman": 2338,
      "reve": 2339,
      "pas": 2340,
      "recently": 2341,
      "levels": 2342,
      "blue": 2343,
      "intel": 2344,
      "technology": 2345,
      "stood": 2346,
      "throughout": 2347,
      "vari": 2348,
      "included": 2349,
      "dru": 2350,
      "defence": 2351,
      "viol": 2352,
      "eli": 2353,
      "dau": 2354,
      "activity": 2355,
      "husband": 2356,
      "contact": 2357,
      "closed": 2358,
      "danger": 2359,
      "demon": 2360,
      "atory": 2361,
      "tural": 2362,
      "july": 2363,
      "summer": 2364,
      "produce": 2365,
      "takes": 2366,
      "okay": 2367,
      "leaders": 2368,
      "pounds": 2369,
      "pressure": 2370,
      "scheme": 2371,
      "administr": 2372,
      "walk": 2373,
      "ource": 2374,
      "path": 2375,
      "mention": 2376,
      "forces": 2377,
      "manufact": 2378,
      "pleas": 2379,
      "ding": 2380,
      "gets": 2381,
      "nur": 2382,
      "soviet": 2383,
      "myself": 2384,
      "gro": 2385,
      "san": 2386,
      "response": 2387,
      "lack": 2388,
      "couple": 2389,
      "choice": 2390,
      "rates": 2391,
      "pred": 2392,
      "prevent": 2393,
      "regis": 2394,
      "libr": 2395,
      "association": 2396,
      "join": 2397,
      "professional": 2398,
      "shar": 2399,
      "sn": 2400,
      "relig": 2401,
      "scient": 2402,
      "christi": 2403,
      "version": 2404,
      "verse": 2405,
      "mist": 2406,
      "aking": 2407,
      "stren": 2408,
      "circum": 2409,
      "quickly": 2410,
      "proced": 2411,
      "page": 2412,
      "actions": 2413,
      "teachers": 2414,
      "original": 2415,
      "sand": 2416,
      "fing": 2417,
      "ideo": 2418,
      "lement": 2419,
      "extre": 2420,
      "reached": 2421,
      "continue": 2422,
      "laugh": 2423,
      "apart": 2424,
      "iling": 2425,
      "isl": 2426,
      "sig": 2427,
      "sales": 2428,
      "distribut": 2429,
      "entire": 2430,
      "successful": 2431,
      "arms": 2432,
      "campaign": 2433,
      "iety": 2434,
      "shows": 2435,
      "served": 2436,
      "dece": 2437,
      "tive": 2438,
      "military": 2439,
      "anyway": 2440,
      "rise": 2441,
      "relations": 2442,
      "base": 2443,
      "details": 2444,
      "radio": 2445,
      "gal": 2446,
      "garden": 2447,
      "hab": 2448,
      "plans": 2449,
      "cher": 2450,
      "sight": 2451,
      "cand": 2452,
      "chall": 2453,
      "fell": 2454,
      "spent": 2455,
      "playing": 2456,
      "aspect": 2457,
      "arrange": 2458,
      "speed": 2459,
      "ensive": 2460,
      "hop": 2461,
      "potential": 2462,
      "lives": 2463,
      "tempor": 2464,
      "activities": 2465,
      "lain": 2466,
      "push": 2467,
      "related": 2468,
      "nit": 2469,
      "rew": 2470,
      "pi": 2471,
      "generally": 2472,
      "flat": 2473,
      "looks": 2474,
      "thirty": 2475,
      "piece": 2476,
      "race": 2477,
      "earth": 2478,
      "county": 2479,
      "ength": 2480,
      "consci": 2481,
      "solution": 2482,
      "write": 2483,
      "select": 2484,
      "consequ": 2485,
      "usual": 2486,
      "dies": 2487,
      "beyond": 2488,
      "streng": 2489,
      "enced": 2490,
      "moving": 2491,
      "figures": 2492,
      "accep": 2493,
      "iful": 2494,
      "oil": 2495,
      "excl": 2496,
      "vin": 2497,
      "distin": 2498,
      "ples": 2499,
      "basic": 2500,
      "multi": 2501,
      "opened": 2502,
      "distr": 2503,
      "army": 2504,
      "benefit": 2505,
      "watch": 2506,
      "bis": 2507,
      "van": 2508,
      "cash": 2509,
      "attempt": 2510,
      "published": 2511,
      "sep": 2512,
      "limited": 2513,
      "hotel": 2514,
      "difference": 2515,
      "neg": 2516,
      "step": 2517,
      "nearly": 2518,
      "poll": 2519,
      "sch": 2520,
      "dev": 2521,
      "effects": 2522,
      "numbers": 2523,
      "iction": 2524,
      "custo": 2525,
      "russi": 2526,
      "ival": 2527,
      "ather": 2528,
      "ium": 2529,
      "relev": 2530,
      "dan": 2531,
      "beat": 2532,
      "ancy": 2533,
      "born": 2534,
      "master": 2535,
      "village": 2536,
      "kill": 2537,
      "teenth": 2538,
      "quie": 2539,
      "commer": 2540,
      "correct": 2541,
      "utions": 2542,
      "reports": 2543,
      "independent": 2544,
      "brown": 2545,
      "mass": 2546,
      "investment": 2547,
      "circumst": 2548,
      "suddenly": 2549,
      "raised": 2550,
      "bow": 2551,
      "smith": 2552,
      "oxford": 2553,
      "mum": 2554,
      "condition": 2555,
      "northern": 2556,
      "tions": 2557,
      "film": 2558,
      "holiday": 2559,
      "houses": 2560,
      "glo": 2561,
      "purch": 2562,
      "attit": 2563,
      "hill": 2564,
      "george": 2565,
      "prison": 2566,
      "tober": 2567,
      "rules": 2568,
      "hot": 2569,
      "length": 2570,
      "meant": 2571,
      "ideas": 2572,
      "picture": 2573,
      "crimin": 2574,
      "unless": 2575,
      "suggested": 2576,
      "ko": 2577,
      "fficient": 2578,
      "thro": 2579,
      "election": 2580,
      "adop": 2581,
      "sorry": 2582,
      "critic": 2583,
      "poly": 2584,
      "october": 2585,
      "science": 2586,
      "western": 2587,
      "struction": 2588,
      "drink": 2589,
      "fed": 2590,
      "fear": 2591,
      "match": 2592,
      "products": 2593,
      "perfect": 2594,
      "reasons": 2595,
      "concept": 2596,
      "plus": 2597,
      "prepared": 2598,
      "emphas": 2599,
      "richard": 2600,
      "obviously": 2601,
      "antly": 2602,
      "consist": 2603,
      "tember": 2604,
      "mad": 2605,
      "doctor": 2606,
      "forest": 2607,
      "zz": 2608,
      "ky": 2609,
      "september": 2610,
      "claimed": 2611,
      "passed": 2612,
      "married": 2613,
      "oured": 2614,
      "techni": 2615,
      "sleep": 2616,
      "riage": 2617,
      "hon.": 2618,
      "brief": 2619,
      "bac": 2620,
      "waiting": 2621,
      "bag": 2622,
      "economy": 2623,
      "birth": 2624,
      "bell": 2625,
      "prior": 2626,
      "window": 2627,
      "yourself": 2628,
      "tes": 2629,
      "announced": 2630,
      "condu": 2631,
      "addition": 2632,
      "recomm": 2633,
      "useful": 2634,
      "integr": 2635,
      "interests": 2636,
      "offered": 2637,
      "miles": 2638,
      "resources": 2639,
      "arily": 2640,
      "comfort": 2641,
      "micro": 2642,
      "nove": 2643,
      "symp": 2644,
      "none": 2645,
      "purpose": 2646,
      "places": 2647,
      "showed": 2648,
      "fran": 2649,
      "learn": 2650,
      "ensure": 2651,
      "cop": 2652,
      "influence": 2653,
      "vit": 2654,
      "river": 2655,
      "germany": 2656,
      "extreme": 2657,
      "january": 2658,
      "effic": 2659,
      "exper": 2660,
      "gives": 2661,
      "site": 2662,
      "alternative": 2663,
      "advice": 2664,
      "resh": 2665,
      "events": 2666,
      "concern": 2667,
      "exactly": 2668,
      "proport": 2669,
      "designed": 2670,
      "suppose": 2671,
      "mort": 2672,
      "interesting": 2673,
      "statement": 2674,
      "geo": 2675,
      "eds": 2676,
      "notice": 2677,
      "america": 2678,
      "judge": 2679,
      "hib": 2680,
      "college": 2681,
      "meaning": 2682,
      "circumstances": 2683,
      "forced": 2684,
      "astic": 2685,
      "command": 2686,
      "ai": 2687,
      "minute": 2688,
      "wing": 2689,
      "warm": 2690,
      "sexual": 2691,
      "james": 2692,
      "turning": 2693,
      "sufficient": 2694,
      "restr": 2695,
      "aid": 2696,
      "lan": 2697,
      "goods": 2698,
      "ony": 2699,
      "jack": 2700,
      "immediately": 2701,
      "heavy": 2702,
      "comment": 2703,
      "pet": 2704,
      "cate": 2705,
      "lady": 2706,
      "opportunity": 2707,
      "transport": 2708,
      "spl": 2709,
      "hael": 2710,
      "traditional": 2711,
      "revol": 2712,
      "rit": 2713,
      "tin": 2714,
      "rock": 2715,
      "prices": 2716,
      "isions": 2717,
      "scottish": 2718,
      "types": 2719,
      "kin": 2720,
      "region": 2721,
      "easily": 2722,
      "application": 2723,
      "preci": 2724,
      "maybe": 2725,
      "conference": 2726,
      "bran": 2727,
      "ption": 2728,
      "title": 2729,
      "understanding": 2730,
      "views": 2731,
      "degree": 2732,
      "average": 2733,
      "existing": 2734,
      "gate": 2735,
      "scale": 2736,
      "extent": 2737,
      "bury": 2738,
      "rote": 2739,
      "arrow": 2740,
      "host": 2741,
      "returned": 2742,
      "dest": 2743,
      "positive": 2744,
      "majority": 2745,
      "cape": 2746,
      "convent": 2747,
      "compar": 2748,
      "television": 2749,
      "aw": 2750,
      "satur": 2751,
      "hm": 2752,
      "michael": 2753,
      "edge": 2754,
      "track": 2755,
      "counter": 2756,
      "daughter": 2757,
      "supply": 2758,
      "dog": 2759,
      "growing": 2760,
      "rule": 2761,
      "ively": 2762,
      "wrote": 2763,
      "disci": 2764,
      "wales": 2765,
      "species": 2766,
      "wit": 2767,
      "phy": 2768,
      "drive": 2769,
      "gall": 2770,
      "responsible": 2771,
      "ordinary": 2772,
      "solute": 2773,
      "emplo": 2774,
      "shot": 2775,
      "spa": 2776,
      "ireland": 2777,
      "nego": 2778,
      "importance": 2779,
      "ech": 2780,
      "negoti": 2781,
      "oned": 2782,
      "beautiful": 2783,
      "surance": 2784,
      "jobs": 2785,
      "housing": 2786,
      "august": 2787,
      "tho": 2788,
      "eat": 2789,
      "standards": 2790,
      "machine": 2791,
      "psycho": 2792,
      "physical": 2793,
      "fro": 2794,
      "ience": 2795,
      "subs": 2796,
      "profit": 2797,
      "measure": 2798,
      "teacher": 2799,
      "cam": 2800,
      "dream": 2801,
      "proceed": 2802,
      "leaving": 2803,
      "wild": 2804,
      "coal": 2805,
      "considerable": 2806,
      "november": 2807,
      "december": 2808,
      "balance": 2809,
      "mut": 2810,
      "ishing": 2811,
      "ae": 2812,
      "boo": 2813,
      "horse": 2814,
      "software": 2815,
      "possib": 2816,
      "substanti": 2817,
      "advis": 2818,
      "competition": 2819,
      "chester": 2820,
      "motor": 2821,
      "fifty": 2822,
      "load": 2823,
      "medical": 2824,
      "iss": 2825,
      "primary": 2826,
      "sector": 2827,
      "sale": 2828,
      "drawn": 2829,
      "gentle": 2830,
      "spirit": 2831,
      "opin": 2832,
      "caused": 2833,
      "double": 2834,
      "patient": 2835,
      "craft": 2836,
      "leader": 2837,
      "weak": 2838,
      "status": 2839,
      "ression": 2840,
      "norm": 2841,
      "task": 2842,
      "media": 2843,
      "surface": 2844,
      "possess": 2845,
      "minor": 2846,
      "learning": 2847,
      "highly": 2848,
      "samp": 2849,
      "holding": 2850,
      "baby": 2851,
      "context": 2852,
      "reser": 2853,
      "associated": 2854,
      "occasion": 2855,
      "survey": 2856,
      "phen": 2857,
      "exten": 2858,
      "responsibility": 2859,
      "rob": 2860,
      "organis": 2861,
      "relevant": 2862,
      "fat": 2863,
      "girls": 2864,
      "sitting": 2865,
      "credit": 2866,
      "quarter": 2867,
      "essential": 2868,
      "interested": 2869,
      "equip": 2870,
      "hood": 2871,
      "regular": 2872,
      "morrow": 2873,
      "advert": 2874,
      "sunday": 2875,
      "opposition": 2876,
      "source": 2877,
      "consult": 2878,
      "division": 2879,
      "castle": 2880,
      "cking": 2881,
      "ality": 2882,
      "environmental": 2883,
      "rare": 2884,
      "claims": 2885,
      "eld": 2886,
      "trouble": 2887,
      "failed": 2888,
      "setting": 2889,
      "particip": 2890,
      "a.": 2891,
      "skills": 2892,
      "bright": 2893,
      "discipl": 2894,
      "shad": 2895,
      "teaching": 2896,
      "photograph": 2897,
      "vation": 2898,
      "absolute": 2899,
      "bio": 2900,
      "reveal": 2901,
      "pun": 2902,
      "ake": 2903,
      "truth": 2904,
      "complain": 2905,
      "organisation": 2906,
      "employe": 2907,
      "rooms": 2908,
      "dry": 2909,
      "officer": 2910,
      "appointed": 2911,
      "crow": 2912,
      "gor": 2913,
      "charles": 2914,
      "separate": 2915,
      "iced": 2916,
      "instance": 2917,
      "provision": 2918,
      "legisl": 2919,
      "windows": 2920,
      "stopped": 2921,
      "noon": 2922,
      "exchange": 2923,
      "budget": 2924,
      "pil": 2925,
      "bought": 2926,
      "dear": 2927,
      "skin": 2928,
      "tas": 2929,
      "tea": 2930,
      "disease": 2931,
      "avoid": 2932,
      "tomorrow": 2933,
      "sli": 2934,
      "mechan": 2935,
      "marked": 2936,
      "created": 2937,
      "demonstr": 2938,
      "equipment": 2939,
      "culture": 2940,
      "ira": 2941,
      "assemb": 2942,
      "ahead": 2943,
      "christian": 2944,
      "send": 2945,
      "direction": 2946,
      "limit": 2947,
      "methods": 2948,
      "guide": 2949,
      "techn": 2950,
      "aster": 2951,
      "eventually": 2952,
      "defend": 2953,
      "remains": 2954,
      "appoint": 2955,
      "names": 2956,
      "auto": 2957,
      "speaker": 2958,
      "acted": 2959,
      "advantage": 2960,
      "typ": 2961,
      "remained": 2962,
      "lived": 2963,
      "christmas": 2964,
      "nation": 2965,
      "tun": 2966,
      "stuff": 2967,
      "older": 2968,
      "finished": 2969,
      "accepted": 2970,
      "policies": 2971,
      "gue": 2972,
      "frame": 2973,
      "compared": 2974,
      "happen": 2975,
      "features": 2976,
      "officers": 2977,
      "commercial": 2978,
      "luck": 2979,
      "wants": 2980,
      "clar": 2981,
      "introduced": 2982,
      "league": 2983,
      "sions": 2984,
      "factors": 2985,
      "safety": 2986,
      "variety": 2987,
      "syn": 2988,
      "gged": 2989,
      "stain": 2990,
      "settle": 2991,
      "matters": 2992,
      "walked": 2993,
      "check": 2994,
      "cry": 2995,
      "document": 2996,
      "ald": 2997,
      "ires": 2998,
      "otherwise": 2999,
      "muse": 3000,
      "swi": 3001,
      "temper": 3002,
      "recor": 3003,
      "exercise": 3004,
      "candid": 3005,
      "directly": 3006,
      "slightly": 3007,
      "roman": 3008,
      "quir": 3009,
      "roll": 3010,
      "confl": 3011,
      "susp": 3012,
      "improve": 3013,
      "thes": 3014,
      "guard": 3015,
      "courses": 3016,
      "kitch": 3017,
      "chem": 3018,
      "dim": 3019,
      "impos": 3020,
      "fare": 3021,
      "nuclear": 3022,
      "bottom": 3023,
      "o'": 3024,
      "killed": 3025,
      "spring": 3026,
      "febr": 3027,
      "kee": 3028,
      "february": 3029,
      "stor": 3030,
      "animals": 3031,
      "senior": 3032,
      "ame": 3033,
      "initi": 3034,
      "promo": 3035,
      "winter": 3036,
      "rou": 3037,
      "s.": 3038,
      "maintain": 3039,
      "argument": 3040,
      "lf": 3041,
      "touch": 3042,
      "estic": 3043,
      "discussion": 3044,
      "terri": 3045,
      "dig": 3046,
      "sey": 3047,
      "arrived": 3048,
      "protection": 3049,
      "infl": 3050,
      "progress": 3051,
      "bath": 3052,
      "create": 3053,
      "exc": 3054,
      "shares": 3055,
      "minim": 3056,
      "custom": 3057,
      "square": 3058,
      "hardly": 3059,
      "boys": 3060,
      "champion": 3061,
      "bid": 3062,
      "g.": 3063,
      "ques": 3064,
      "fal": 3065,
      "za": 3066,
      "completely": 3067,
      "proposed": 3068,
      "stick": 3069,
      "alright": 3070,
      "theless": 3071,
      "annual": 3072,
      "fash": 3073,
      "hang": 3074,
      "damage": 3075,
      "provides": 3076,
      "joint": 3077,
      "icles": 3078,
      "mart": 3079,
      "dete": 3080,
      "employed": 3081,
      "executive": 3082,
      "iron": 3083,
      "strugg": 3084,
      "rat": 3085,
      "newspa": 3086,
      "temporary": 3087,
      "eth": 3088,
      "normally": 3089,
      "amb": 3090,
      "transfer": 3091,
      "rapid": 3092,
      "len": 3093,
      "firms": 3094,
      "families": 3095,
      "lection": 3096,
      "caught": 3097,
      "sar": 3098,
      "sky": 3099,
      "ressive": 3100,
      "reference": 3101,
      "fresh": 3102,
      "library": 3103,
      "resist": 3104,
      "dun": 3105,
      "duty": 3106,
      "achieve": 3107,
      "forty": 3108,
      "republic": 3109,
      "conscious": 3110,
      "knows": 3111,
      "mine": 3112,
      "address": 3113,
      "belief": 3114,
      "speech": 3115,
      "gare": 3116,
      "saturday": 3117,
      "sharp": 3118,
      "programm": 3119,
      "players": 3120,
      "austr": 3121,
      "travel": 3122,
      "protect": 3123,
      "collection": 3124,
      "implic": 3125,
      "strength": 3126,
      "content": 3127,
      "trees": 3128,
      "reform": 3129,
      "trave": 3130,
      "lly": 3131,
      "determined": 3132,
      "neigh": 3133,
      "pac": 3134,
      "queen": 3135,
      "afternoon": 3136,
      "pupils": 3137,
      "owners": 3138,
      "shif": 3139,
      "istics": 3140,
      "agricul": 3141,
      "principle": 3142,
      "pit": 3143,
      "regional": 3144,
      "cot": 3145,
      "austral": 3146,
      "sevent": 3147,
      "partners": 3148,
      "lights": 3149,
      "hat": 3150,
      "count": 3151,
      "estim": 3152,
      "tot": 3153,
      "cris": 3154,
      "adequ": 3155,
      "ero": 3156,
      "let's": 3157,
      "analy": 3158,
      "female": 3159,
      "display": 3160,
      "appears": 3161,
      "slo": 3162,
      "electric": 3163,
      "darling": 3164,
      "reduced": 3165,
      "subsequ": 3166,
      "spot": 3167,
      "twel": 3168,
      "latter": 3169,
      "cars": 3170,
      "effort": 3171,
      "huge": 3172,
      "believed": 3173,
      "apply": 3174,
      "ax": 3175,
      "practical": 3176,
      "dad": 3177,
      "ctors": 3178,
      "individuals": 3179,
      "justice": 3180,
      "suffer": 3181,
      "overall": 3182,
      "district": 3183,
      "keeping": 3184,
      "presented": 3185,
      "neither": 3186,
      "vere": 3187,
      "idents": 3188,
      "tight": 3189,
      "jac": 3190,
      "raise": 3191,
      "maxim": 3192,
      "feed": 3193,
      "chemical": 3194,
      "clock": 3195,
      "marriage": 3196,
      "ular": 3197,
      "vote": 3198,
      "student": 3199,
      "letters": 3200,
      "telephone": 3201,
      "iar": 3202,
      "robert": 3203,
      "focus": 3204,
      "opening": 3205,
      "inno": 3206,
      "correspond": 3207,
      "achieved": 3208,
      "presence": 3209,
      "reti": 3210,
      "values": 3211,
      "sus": 3212,
      "kitchen": 3213,
      "image": 3214,
      "cs": 3215,
      "bodies": 3216,
      "rey": 3217,
      "alleg": 3218,
      "anne": 3219,
      "valu": 3220,
      "relatively": 3221,
      "fashion": 3222,
      "deser": 3223,
      "stairs": 3224,
      "eral": 3225,
      "rang": 3226,
      "career": 3227,
      "africa": 3228,
      "mption": 3229,
      "virt": 3230,
      "excell": 3231,
      "treated": 3232,
      "steps": 3233,
      "cells": 3234,
      "revolution": 3235,
      "differences": 3236,
      "benefits": 3237,
      "expression": 3238,
      "kno": 3239,
      "proportion": 3240,
      "contrast": 3241,
      "spread": 3242,
      "promis": 3243,
      "failure": 3244,
      "ali": 3245,
      "construction": 3246,
      "cla": 3247,
      "pic": 3248,
      "spend": 3249,
      "enge": 3250,
      "accident": 3251,
      "memor": 3252,
      "subjects": 3253,
      "intended": 3254,
      "larger": 3255,
      "fill": 3256,
      "becomes": 3257,
      "formal": 3258,
      "marks": 3259,
      "song": 3260,
      "painting": 3261,
      "acade": 3262,
      "abs": 3263,
      "burgh": 3264,
      "wered": 3265,
      "applied": 3266,
      "ung": 3267,
      "zed": 3268,
      "bil": 3269,
      "urban": 3270,
      "orders": 3271,
      "calcul": 3272,
      "cha": 3273,
      "records": 3274,
      "equal": 3275,
      "pin": 3276,
      "apparently": 3277,
      "sister": 3278,
      "pretty": 3279,
      "icted": 3280,
      "raid": 3281,
      "factory": 3282,
      "signed": 3283,
      "finance": 3284,
      "protest": 3285,
      "goal": 3286,
      "copy": 3287,
      "daily": 3288,
      "wheel": 3289,
      "ense": 3290,
      "putting": 3291,
      "tree": 3292,
      "opinion": 3293,
      "managed": 3294,
      "football": 3295,
      "ray": 3296,
      "unders": 3297,
      "facilities": 3298,
      "eigh": 3299,
      "memory": 3300,
      "ston": 3301,
      "tv": 3302,
      "gi": 3303,
      "mhm": 3304,
      "decisions": 3305,
      "itation": 3306,
      "impact": 3307,
      "narrow": 3308,
      "corner": 3309,
      "constitution": 3310,
      "sad": 3311,
      "save": 3312,
      "broken": 3313,
      "onto": 3314,
      "sym": 3315,
      "waste": 3316,
      "cure": 3317,
      "receive": 3318,
      "hes": 3319,
      "merely": 3320,
      "railway": 3321,
      "mountain": 3322,
      "joined": 3323,
      "institution": 3324,
      "strange": 3325,
      "plants": 3326,
      "politics": 3327,
      "selling": 3328,
      "bomb": 3329,
      "slowly": 3330,
      "helped": 3331,
      "user": 3332,
      "battle": 3333,
      "surround": 3334,
      "thur": 3335,
      "construct": 3336,
      "additional": 3337,
      "quant": 3338,
      "tradition": 3339,
      "frank": 3340,
      "conservative": 3341,
      "omas": 3342,
      "confidence": 3343,
      "ology": 3344,
      "theat": 3345,
      "clothes": 3346,
      "udes": 3347,
      "jump": 3348,
      "veh": 3349,
      "burn": 3350,
      "cook": 3351,
      "sett": 3352,
      "domestic": 3353,
      "satisf": 3354,
      "freed": 3355,
      "units": 3356,
      "serve": 3357,
      "network": 3358,
      "prospect": 3359,
      "providing": 3360,
      "mun": 3361,
      "corp": 3362,
      "cele": 3363,
      "inet": 3364,
      "familiar": 3365,
      "largely": 3366,
      "debate": 3367,
      "stream": 3368,
      "oppos": 3369,
      "prepar": 3370,
      "kers": 3371,
      "implement": 3372,
      "cester": 3373,
      "itors": 3374,
      "smaller": 3375,
      "currently": 3376,
      "solid": 3377,
      "supposed": 3378,
      "capac": 3379,
      "video": 3380,
      "affairs": 3381,
      "stret": 3382,
      "acting": 3383,
      "crime": 3384,
      "powerful": 3385,
      "insurance": 3386,
      "wid": 3387,
      "aspects": 3388,
      "regarded": 3389,
      "scene": 3390,
      "actual": 3391,
      "banks": 3392,
      "wealth": 3393,
      "expressed": 3394,
      "shape": 3395,
      "umn": 3396,
      "reasonable": 3397,
      "seeing": 3398,
      "encies": 3399,
      "interpret": 3400,
      "celebr": 3401,
      "accounts": 3402,
      "technical": 3403,
      "wick": 3404,
      "grounds": 3405,
      "island": 3406,
      "powers": 3407,
      "becoming": 3408,
      "jury": 3409,
      "willing": 3410,
      "nut": 3411,
      "reduce": 3412,
      "ato": 3413,
      "initial": 3414,
      "archite": 3415,
      "convers": 3416,
      "factor": 3417,
      "faith": 3418,
      "b.": 3419,
      "examples": 3420,
      "rence": 3421,
      "climb": 3422,
      "architect": 3423,
      "possibly": 3424,
      "nevertheless": 3425,
      "ining": 3426,
      "bing": 3427,
      "i.": 3428,
      "explained": 3429,
      "liberal": 3430,
      "mentioned": 3431,
      "somebody": 3432,
      "edward": 3433,
      "calls": 3434,
      "mainly": 3435,
      "missed": 3436,
      "wis": 3437,
      "coast": 3438,
      "changing": 3439,
      "poses": 3440,
      "bered": 3441,
      "possibility": 3442,
      "glas": 3443,
      "assessment": 3444,
      "scr": 3445,
      "thick": 3446,
      "internal": 3447,
      "novel": 3448,
      "smile": 3449,
      "legislation": 3450,
      "esti": 3451,
      "fru": 3452,
      "explan": 3453,
      "shops": 3454,
      "fixed": 3455,
      "traffic": 3456,
      "victor": 3457,
      "seat": 3458,
      "athe": 3459,
      "oso": 3460,
      "proved": 3461,
      "grey": 3462,
      "distance": 3463,
      "interview": 3464,
      "worse": 3465,
      "map": 3466,
      "measures": 3467,
      "hibition": 3468,
      "cultural": 3469,
      "sme": 3470,
      "eval": 3471,
      "bloody": 3472,
      "weather": 3473,
      "scar": 3474,
      "expert": 3475,
      "discussed": 3476,
      "bear": 3477,
      "rout": 3478,
      "fairly": 3479,
      "tex": 3480,
      "uded": 3481,
      "smiled": 3482,
      "hum": 3483,
      "thomas": 3484,
      "users": 3485,
      "carefully": 3486,
      "famous": 3487,
      "museum": 3488,
      "egg": 3489,
      "impossible": 3490,
      "proposals": 3491,
      "bun": 3492,
      "shut": 3493,
      "client": 3494,
      "illustr": 3495,
      "clin": 3496,
      "instru": 3497,
      "refer": 3498,
      "dor": 3499,
      "tribut": 3500,
      "welcome": 3501,
      "previously": 3502,
      "target": 3503,
      "ral": 3504,
      "animal": 3505,
      "youth": 3506,
      "num": 3507,
      "organization": 3508,
      "commod": 3509,
      "bol": 3510,
      "offee": 3511,
      "anx": 3512,
      "trial": 3513,
      "boat": 3514,
      "spending": 3515,
      "evol": 3516,
      "quo": 3517,
      "worry": 3518,
      "ministers": 3519,
      "ivity": 3520,
      "heads": 3521,
      "challenge": 3522,
      "tric": 3523,
      "difficulties": 3524,
      "materials": 3525,
      "fields": 3526,
      "notes": 3527,
      "aran": 3528,
      "insist": 3529,
      "lock": 3530,
      "includes": 3531,
      "entirely": 3532,
      "output": 3533,
      "religious": 3534,
      "filled": 3535,
      "phas": 3536,
      "m.": 3537,
      "henry": 3538,
      "heat": 3539,
      "choose": 3540,
      "accur": 3541,
      "message": 3542,
      "obtain": 3543,
      "introduction": 3544,
      "suitable": 3545,
      "administration": 3546,
      "nod": 3547,
      "customers": 3548,
      "cles": 3549,
      "ideal": 3550,
      "categ": 3551,
      "throw": 3552,
      "dur": 3553,
      "buildings": 3554,
      "relief": 3555,
      "whis": 3556,
      "sam": 3557,
      "release": 3558,
      "location": 3559,
      "pension": 3560,
      "extremely": 3561,
      "mig": 3562,
      "items": 3563,
      "existence": 3564,
      "atta": 3565,
      "oral": 3566,
      "twelve": 3567,
      "suggests": 3568,
      "ases": 3569,
      "habit": 3570,
      "sphere": 3571,
      "finding": 3572,
      "jam": 3573,
      "wear": 3574,
      "sides": 3575,
      "somewhere": 3576,
      "talks": 3577,
      "ington": 3578,
      "charges": 3579,
      "irt": 3580,
      "sick": 3581,
      "affected": 3582,
      "suffe": 3583,
      "excellent": 3584,
      "defined": 3585,
      "coffee": 3586,
      "gment": 3587,
      "article": 3588,
      "igh": 3589,
      "wine": 3590,
      "lose": 3591,
      "laid": 3592,
      "jim": 3593,
      "alex": 3594,
      "thanks": 3595,
      "tonight": 3596,
      "reject": 3597,
      "recorded": 3598,
      "zy": 3599,
      "sources": 3600,
      "identified": 3601,
      "irish": 3602,
      "increasingly": 3603,
      "moral": 3604,
      "decide": 3605,
      "arrest": 3606,
      "diag": 3607,
      "spoke": 3608,
      "faces": 3609,
      "sensit": 3610,
      "encourage": 3611,
      "ingu": 3612,
      "walking": 3613,
      "kingdom": 3614,
      "belong": 3615,
      "reality": 3616,
      "mps": 3617,
      "cabinet": 3618,
      "fly": 3619,
      "rough": 3620,
      "electron": 3621,
      "markets": 3622,
      "fourth": 3623,
      "fellow": 3624,
      "attend": 3625,
      "r.": 3626,
      "equally": 3627,
      "driving": 3628,
      "ume": 3629,
      "via": 3630,
      "remo": 3631,
      "latest": 3632,
      "apped": 3633,
      "remark": 3634,
      "philoso": 3635,
      "starting": 3636,
      "option": 3637,
      "pon": 3638,
      "rela": 3639,
      "jes": 3640,
      "pulled": 3641,
      "stim": 3642,
      "antic": 3643,
      "dress": 3644,
      "paris": 3645,
      "lk": 3646,
      "eness": 3647,
      "lips": 3648,
      "payment": 3649,
      "birds": 3650,
      "instruct": 3651,
      "showing": 3652,
      "unemployment": 3653,
      "remind": 3654,
      "cath": 3655,
      "isto": 3656,
      "distinct": 3657,
      "reck": 3658,
      "tering": 3659,
      "wich": 3660,
      "request": 3661,
      "solic": 3662,
      "institutions": 3663,
      "borough": 3664,
      "homes": 3665,
      "reven": 3666,
      "shout": 3667,
      "ets": 3668,
      "quiet": 3669,
      "err": 3670,
      "detailed": 3671,
      "programmes": 3672,
      "replace": 3673,
      "tests": 3674,
      "pm": 3675,
      "ops": 3676,
      "speaking": 3677,
      "appreci": 3678,
      "argued": 3679,
      "hell": 3680,
      "leaves": 3681,
      "elder": 3682,
      "ltd": 3683,
      "watching": 3684,
      "delay": 3685,
      "aye": 3686,
      "feature": 3687,
      "bond": 3688,
      "wy": 3689,
      "cular": 3690,
      "ashed": 3691,
      "stress": 3692,
      "forget": 3693,
      "cler": 3694,
      "elements": 3695,
      "cket": 3696,
      "asc": 3697,
      "cool": 3698,
      "journal": 3699,
      "aircraft": 3700,
      "drawing": 3701,
      "persu": 3702,
      "file": 3703,
      "rural": 3704,
      "fection": 3705,
      "lou": 3706,
      "discovered": 3707,
      "japanese": 3708,
      "rising": 3709,
      "neck": 3710,
      "edin": 3711,
      "zen": 3712,
      "distribution": 3713,
      "entially": 3714,
      "magaz": 3715,
      "eastern": 3716,
      "enterpr": 3717,
      "admitted": 3718,
      "substantial": 3719,
      "element": 3720,
      "precise": 3721,
      "murder": 3722,
      "breath": 3723,
      "intellig": 3724,
      "stal": 3725,
      "communication": 3726,
      "papers": 3727,
      "games": 3728,
      "funds": 3729,
      "prince": 3730,
      "crown": 3731,
      "pair": 3732,
      "scientific": 3733,
      "faced": 3734,
      "legs": 3735,
      "pc": 3736,
      "asking": 3737,
      "mous": 3738,
      "obtained": 3739,
      "manufacture": 3740,
      "mph": 3741,
      "metal": 3742,
      "pure": 3743,
      "strateg": 3744,
      "courts": 3745,
      "surprising": 3746,
      "expensive": 3747,
      "igno": 3748,
      "observ": 3749,
      "democratic": 3750,
      "weekend": 3751,
      "difficulty": 3752,
      "situ": 3753,
      "applications": 3754,
      "developing": 3755,
      "aur": 3756,
      "upper": 3757,
      "dinner": 3758,
      "ana": 3759,
      "afford": 3760,
      "plate": 3761,
      "telling": 3762,
      "ays": 3763,
      "fold": 3764,
      "referred": 3765,
      "oth": 3766,
      "twice": 3767,
      "aded": 3768,
      "formation": 3769,
      "laun": 3770,
      "bishop": 3771,
      "kne": 3772,
      "follows": 3773,
      "fig.": 3774,
      "whereas": 3775,
      "refused": 3776,
      "fortunately": 3777,
      "weap": 3778,
      "tage": 3779,
      "ender": 3780,
      "unable": 3781,
      "watched": 3782,
      "guaran": 3783,
      "drop": 3784,
      "acid": 3785,
      "entit": 3786,
      "destroy": 3787,
      "percent": 3788,
      "noted": 3789,
      "strategy": 3790,
      "inspect": 3791,
      "lets": 3792,
      "selection": 3793,
      "classes": 3794,
      "osed": 3795,
      "itar": 3796,
      "funda": 3797,
      "officials": 3798,
      "listen": 3799,
      "appearance": 3800,
      "screen": 3801,
      "fab": 3802,
      "alle": 3803,
      "background": 3804,
      "capacity": 3805,
      "curricul": 3806,
      "pictures": 3807,
      "elections": 3808,
      "lovely": 3809,
      "edinburgh": 3810,
      "lunch": 3811,
      "manner": 3812,
      "route": 3813,
      "ites": 3814,
      "relationships": 3815,
      "valid": 3816,
      "perman": 3817,
      "desk": 3818,
      "agency": 3819,
      "mate": 3820,
      "educational": 3821,
      "critical": 3822,
      "necessarily": 3823,
      "tool": 3824,
      "formul": 3825,
      "delight": 3826,
      "gry": 3827,
      "household": 3828,
      "empty": 3829,
      "surely": 3830,
      "marke": 3831,
      "offers": 3832,
      "operations": 3833,
      "nis": 3834,
      "dip": 3835,
      "enthus": 3836,
      "sole": 3837,
      "theatre": 3838,
      "experienced": 3839,
      "immediate": 3840,
      "theo": 3841,
      "alan": 3842,
      "completed": 3843,
      "ternal": 3844,
      "planned": 3845,
      "debt": 3846,
      "picked": 3847,
      "vital": 3848,
      "forts": 3849,
      "requirements": 3850,
      "understo": 3851,
      "grass": 3852,
      "spar": 3853,
      "ino": 3854,
      "graphy": 3855,
      "suspect": 3856,
      "iture": 3857,
      "iving": 3858,
      "enthusi": 3859,
      "understood": 3860,
      "inevit": 3861,
      "code": 3862,
      "operating": 3863,
      "frequently": 3864,
      "sites": 3865,
      "attitude": 3866,
      "ception": 3867,
      "till": 3868,
      "armed": 3869,
      "crisis": 3870,
      "freedom": 3871,
      "han": 3872,
      "ull": 3873,
      "chest": 3874,
      "walls": 3875,
      "package": 3876,
      "conduct": 3877,
      "hors": 3878,
      "profession": 3879,
      "conflict": 3880,
      "player": 3881,
      "inju": 3882,
      "imper": 3883,
      "colon": 3884,
      "illi": 3885,
      "owner": 3886,
      "techniques": 3887,
      "appointment": 3888,
      "lean": 3889,
      "managers": 3890,
      "profits": 3891,
      "emotion": 3892,
      "voc": 3893,
      "expend": 3894,
      "capable": 3895,
      "everybody": 3896,
      "chosen": 3897,
      "carrying": 3898,
      "hero": 3899,
      "compon": 3900,
      "largest": 3901,
      "china": 3902,
      "charged": 3903,
      "silver": 3904,
      "rush": 3905,
      "odd": 3906,
      "arts": 3907,
      "imagine": 3908,
      "martin": 3909,
      "j.": 3910,
      "generation": 3911,
      "nav": 3912,
      "facts": 3913,
      "secut": 3914,
      "nobody": 3915,
      "liked": 3916,
      "captain": 3917,
      "issued": 3918,
      "recognition": 3919,
      "reaction": 3920,
      "ram": 3921,
      "preser": 3922,
      "supported": 3923,
      "sounds": 3924,
      "ibility": 3925,
      "employees": 3926,
      "block": 3927,
      "elected": 3928,
      "tall": 3929,
      "sentence": 3930,
      "dealing": 3931,
      "rot": 3932,
      "ka": 3933,
      "rick": 3934,
      "adequate": 3935,
      "hole": 3936,
      "index": 3937,
      "opposite": 3938,
      "saving": 3939,
      "easier": 3940,
      "purposes": 3941,
      "drew": 3942,
      "fighting": 3943,
      "whil": 3944,
      "pp.": 3945,
      "uct": 3946,
      "entered": 3947,
      "oration": 3948,
      "del": 3949,
      "brand": 3950,
      "patterns": 3951,
      "garet": 3952,
      "umb": 3953,
      "strike": 3954,
      "creation": 3955,
      "span": 3956,
      "opportunities": 3957,
      "pursu": 3958,
      "nick": 3959,
      "whilst": 3960,
      "constant": 3961,
      "procedure": 3962,
      "zo": 3963,
      "iles": 3964,
      "arrangements": 3965,
      "xic": 3966,
      "pieces": 3967,
      "chain": 3968,
      "presents": 3969,
      "removed": 3970,
      "shel": 3971,
      "compre": 3972,
      "izing": 3973,
      "disput": 3974,
      "congress": 3975,
      "apt": 3976,
      "corporate": 3977,
      "recommend": 3978,
      "sin": 3979,
      "happens": 3980,
      "agues": 3981,
      "prove": 3982,
      "sets": 3983,
      "absence": 3984,
      "widely": 3985,
      "coach": 3986,
      "pray": 3987,
      "mono": 3988,
      "totally": 3989,
      "discipline": 3990,
      "prefer": 3991,
      "friday": 3992,
      "projects": 3993,
      "catch": 3994,
      "ades": 3995,
      "demands": 3996,
      "absolutely": 3997,
      "quid": 3998,
      "confident": 3999,
      "beth": 4000,
      "folk": 4001,
      "firmed": 4002,
      "asp": 4003,
      "distingu": 4004,
      "dangerous": 4005,
      "entry": 4006,
      "stro": 4007,
      "driver": 4008,
      "commitment": 4009,
      "abled": 4010,
      "principles": 4011,
      "historical": 4012,
      "tren": 4013,
      "fre": 4014,
      "loved": 4015,
      "mel": 4016,
      "anci": 4017,
      "deput": 4018,
      "violence": 4019,
      "roof": 4020,
      "tap": 4021,
      "sac": 4022,
      "partly": 4023,
      "efficient": 4024,
      "darlington": 4025,
      "doors": 4026,
      "alo": 4027,
      "russian": 4028,
      "sie": 4029,
      "bob": 4030,
      "cill": 4031,
      "sports": 4032,
      "gul": 4033,
      "afraid": 4034,
      "represented": 4035,
      "seas": 4036,
      "glou": 4037,
      "liverpool": 4038,
      "isol": 4039,
      "elsewhere": 4040,
      "aked": 4041,
      "branch": 4042,
      "nest": 4043,
      "wan": 4044,
      "fis": 4045,
      "southern": 4046,
      "witness": 4047,
      "adjust": 4048,
      "cis": 4049,
      "succeed": 4050,
      "attractive": 4051,
      "dropped": 4052,
      "seriously": 4053,
      "volume": 4054,
      "citiz": 4055,
      "dee": 4056,
      "express": 4057,
      "replaced": 4058,
      "ix": 4059,
      "sul": 4060,
      "apo": 4061,
      "drug": 4062,
      "iency": 4063,
      "sage": 4064,
      "ressing": 4065,
      "gloucester": 4066,
      "inf": 4067,
      "unlikely": 4068,
      "properly": 4069,
      "controlled": 4070,
      "matically": 4071,
      "expand": 4072,
      "flex": 4073,
      "fingers": 4074,
      "holders": 4075,
      "victory": 4076,
      "atmo": 4077,
      "flowers": 4078,
      "guil": 4079,
      "discuss": 4080,
      "tape": 4081,
      "stimul": 4082,
      "efforts": 4083,
      "ari": 4084,
      "advance": 4085,
      "closely": 4086,
      "camer": 4087,
      "isra": 4088,
      "estate": 4089,
      "expenditure": 4090,
      "stated": 4091,
      "consideration": 4092,
      "pressed": 4093,
      "inner": 4094,
      "assembly": 4095,
      "conven": 4096,
      "perform": 4097,
      "exhibition": 4098,
      "ultim": 4099,
      "jesus": 4100,
      "resol": 4101,
      "brain": 4102,
      "fred": 4103,
      "sched": 4104,
      "height": 4105,
      "forgot": 4106,
      "gif": 4107,
      "processes": 4108,
      "bread": 4109,
      "iraq": 4110,
      "runs": 4111,
      "flight": 4112,
      "iers": 4113,
      "premi": 4114,
      "wav": 4115,
      "store": 4116,
      "conver": 4117,
      "ifying": 4118,
      "aband": 4119,
      "gram": 4120,
      "colleagues": 4121,
      "ya": 4122,
      "rational": 4123,
      "oct": 4124,
      "rum": 4125,
      "emphasis": 4126,
      "iii": 4127,
      "lam": 4128,
      "silence": 4129,
      "incident": 4130,
      "rand": 4131,
      "snow": 4132,
      "install": 4133,
      "iation": 4134,
      "sought": 4135,
      "borrow": 4136,
      "treas": 4137,
      "extended": 4138,
      "centres": 4139,
      "provis": 4140,
      "rev": 4141,
      "laws": 4142,
      "lee": 4143,
      "arrang": 4144,
      "hearing": 4145,
      "tan": 4146,
      "seek": 4147,
      "yard": 4148,
      "audience": 4149,
      "beside": 4150,
      "jones": 4151,
      "ordered": 4152,
      "tie": 4153,
      "drugs": 4154,
      "adopted": 4155,
      "isa": 4156,
      "curriculum": 4157,
      "broke": 4158,
      "occurred": 4159,
      "excess": 4160,
      "named": 4161,
      "dust": 4162,
      "bird": 4163,
      "thousands": 4164,
      "curren": 4165,
      "fifteen": 4166,
      "nie": 4167,
      "desire": 4168,
      "committed": 4169,
      "functions": 4170,
      "institute": 4171,
      "usa": 4172,
      "lots": 4173,
      "noticed": 4174,
      "decor": 4175,
      "nings": 4176,
      "contribution": 4177,
      "ica": 4178,
      "gency": 4179,
      "criter": 4180,
      "grown": 4181,
      "sheet": 4182,
      "spokes": 4183,
      "bles": 4184,
      "models": 4185,
      "ingly": 4186,
      "meetings": 4187,
      "marketing": 4188,
      "cession": 4189,
      "continuing": 4190,
      "regi": 4191,
      "suffered": 4192,
      "repeated": 4193,
      "procedures": 4194,
      "learned": 4195,
      "pleasure": 4196,
      "acknow": 4197,
      "approved": 4198,
      "membership": 4199,
      "recognised": 4200,
      "secure": 4201,
      "requires": 4202,
      "revealed": 4203,
      "younger": 4204,
      "milk": 4205,
      "subsid": 4206,
      "ths": 4207,
      "apparent": 4208,
      "fruit": 4209,
      "conce": 4210,
      "resident": 4211,
      "bringing": 4212,
      "cathol": 4213,
      "blow": 4214,
      "dish": 4215,
      "editor": 4216,
      "depos": 4217,
      "conversation": 4218,
      "plent": 4219,
      "suppor": 4220,
      "tony": 4221,
      "bure": 4222,
      "doll": 4223,
      "dia": 4224,
      "gentleman": 4225,
      "metres": 4226,
      "connection": 4227,
      "vast": 4228,
      "trading": 4229,
      "asts": 4230,
      "italian": 4231,
      "monday": 4232,
      "quiry": 4233,
      "comfortable": 4234,
      "accommod": 4235,
      "yellow": 4236,
      "tiny": 4237,
      "lyn": 4238,
      "remaining": 4239,
      "pel": 4240,
      "comprehen": 4241,
      "feelings": 4242,
      "gins": 4243,
      "greg": 4244,
      "membered": 4245,
      "external": 4246,
      "kick": 4247,
      "inflation": 4248,
      "quarters": 4249,
      "oz": 4250,
      "contained": 4251,
      "enable": 4252,
      "released": 4253,
      "rer": 4254,
      "criminal": 4255,
      "cript": 4256,
      "manchester": 4257,
      "cheap": 4258,
      "literature": 4259,
      "chi": 4260,
      "billion": 4261,
      "attempts": 4262,
      "mates": 4263,
      "intention": 4264,
      "readers": 4265,
      "restaur": 4266,
      "migr": 4267,
      "iring": 4268,
      "horses": 4269,
      "enor": 4270,
      "adult": 4271,
      "bare": 4272,
      "investigation": 4273,
      "equival": 4274,
      "principal": 4275,
      "organisations": 4276,
      "session": 4277,
      "orient": 4278,
      "developments": 4279,
      "description": 4280,
      "worst": 4281,
      "ey": 4282,
      "surprised": 4283,
      "typical": 4284,
      "examination": 4285,
      "remembered": 4286,
      "maximum": 4287,
      "aging": 4288,
      "extr": 4289,
      "italy": 4290,
      "negative": 4291,
      "hence": 4292,
      "wound": 4293,
      "lift": 4294,
      "schemes": 4295,
      "corn": 4296,
      "ping": 4297,
      "fundamental": 4298,
      "finish": 4299,
      "careful": 4300,
      "yer": 4301,
      "replied": 4302,
      "sixty": 4303,
      "gap": 4304,
      "forth": 4305,
      "greatest": 4306,
      "offering": 4307,
      "lla": 4308,
      "engineering": 4309,
      "partner": 4310,
      "moti": 4311,
      "modif": 4312,
      "effectively": 4313,
      "phr": 4314,
      "minimum": 4315,
      "cert": 4316,
      "rug": 4317,
      "fasc": 4318,
      "etc": 4319,
      "mise": 4320,
      "professor": 4321,
      "stan": 4322,
      "itely": 4323,
      "vary": 4324,
      "uce": 4325,
      "leeds": 4326,
      "ults": 4327,
      "bureau": 4328,
      "beach": 4329,
      "treaty": 4330,
      "surprise": 4331,
      "conclusion": 4332,
      "reduction": 4333,
      "meal": 4334,
      "observed": 4335,
      "tray": 4336,
      "shared": 4337,
      "pleased": 4338,
      "farmers": 4339,
      "numer": 4340,
      "l.": 4341,
      "monitor": 4342,
      "blind": 4343,
      "operate": 4344,
      "agg": 4345,
      "fuel": 4346,
      "bene": 4347,
      "academic": 4348,
      "tees": 4349,
      "busy": 4350,
      "journey": 4351,
      "extensive": 4352,
      "signs": 4353,
      "confirmed": 4354,
      "va": 4355,
      "payments": 4356,
      "paying": 4357,
      "advanced": 4358,
      "reput": 4359,
      "australia": 4360,
      "identify": 4361,
      "honest": 4362,
      "neighbour": 4363,
      "thered": 4364,
      "complic": 4365,
      "phase": 4366,
      "definition": 4367,
      "ibm": 4368,
      "estimated": 4369,
      "highest": 4370,
      "compens": 4371,
      "burg": 4372,
      "entitled": 4373,
      "wearing": 4374,
      "enjoyed": 4375,
      "prog": 4376,
      "mbled": 4377,
      "switch": 4378,
      "penal": 4379,
      "palace": 4380,
      "hibit": 4381,
      "ministry": 4382,
      "depends": 4383,
      "diet": 4384,
      "mail": 4385,
      "elderly": 4386,
      "sections": 4387,
      "bbc": 4388,
      "flying": 4389,
      "hoped": 4390,
      "gel": 4391,
      "radical": 4392,
      "panel": 4393,
      "usive": 4394,
      "ancient": 4395,
      "mere": 4396,
      "breed": 4397,
      "adam": 4398,
      "wet": 4399,
      "lane": 4400,
      "arab": 4401,
      "canad": 4402,
      "hypo": 4403,
      "accused": 4404,
      "trip": 4405,
      "jection": 4406,
      "rival": 4407,
      "seeking": 4408,
      "iously": 4409,
      "goals": 4410,
      "secondary": 4411,
      "passing": 4412,
      "desper": 4413,
      "newspaper": 4414,
      "asing": 4415,
      "welfare": 4416,
      "kid": 4417,
      "wider": 4418,
      "amber": 4419,
      "tery": 4420,
      "ictions": 4421,
      "cutting": 4422,
      "e.g.": 4423,
      "crack": 4424,
      "mile": 4425,
      "unique": 4426,
      "acceptable": 4427,
      "tone": 4428,
      "clients": 4429,
      "improved": 4430,
      "ninety": 4431,
      "brian": 4432,
      "oblig": 4433,
      "parish": 4434,
      "zing": 4435,
      "vice": 4436,
      "bay": 4437,
      "hurt": 4438,
      "knowing": 4439,
      "coat": 4440,
      "politic": 4441,
      "nineteen": 4442,
      "cope": 4443,
      "bled": 4444,
      "voted": 4445,
      "glad": 4446,
      "unix": 4447,
      "gradu": 4448,
      "ension": 4449,
      "sustain": 4450,
      "jen": 4451,
      "finger": 4452,
      "fright": 4453,
      "cm": 4454,
      "tack": 4455,
      "collap": 4456,
      "ented": 4457,
      "pull": 4458,
      "preced": 4459,
      "uine": 4460,
      "plenty": 4461,
      "located": 4462,
      "calling": 4463,
      "winning": 4464,
      "beneath": 4465,
      "communications": 4466,
      "realised": 4467,
      "amed": 4468,
      "liance": 4469,
      "streets": 4470,
      "atmosphere": 4471,
      "leadership": 4472,
      "alco": 4473,
      "colours": 4474,
      "linked": 4475,
      "mble": 4476,
      "lake": 4477,
      "anybody": 4478,
      "machines": 4479,
      "recru": 4480,
      "shook": 4481,
      "visitors": 4482,
      "split": 4483,
      "tial": 4484,
      "dance": 4485,
      "deleg": 4486,
      "settlement": 4487,
      "gently": 4488,
      "attitudes": 4489,
      "injury": 4490,
      "escape": 4491,
      "erson": 4492,
      "significance": 4493,
      "shoulder": 4494,
      "customer": 4495,
      "inary": 4496,
      "troops": 4497,
      "sures": 4498,
      "fault": 4499,
      "meanwhile": 4500,
      "holder": 4501,
      "cities": 4502,
      "guess": 4503,
      "lined": 4504,
      "criticism": 4505,
      "rein": 4506,
      "india": 4507,
      "thesis": 4508,
      "ander": 4509,
      "rome": 4510,
      "bits": 4511,
      "governments": 4512,
      "consumer": 4513,
      "detect": 4514,
      "fron": 4515,
      "owned": 4516,
      "sweet": 4517,
      "rious": 4518,
      "q.": 4519,
      "icts": 4520,
      "sample": 4521,
      "angle": 4522,
      "writer": 4523,
      "stations": 4524,
      "lac": 4525,
      "retire": 4526,
      "pushed": 4527,
      "decline": 4528,
      "jer": 4529,
      "favourite": 4530,
      "communist": 4531,
      "biggest": 4532,
      "wonderful": 4533,
      "border": 4534,
      "pher": 4535,
      "severe": 4536,
      "ager": 4537,
      "urally": 4538,
      "rub": 4539,
      "eleven": 4540,
      "ooh": 4541,
      "steel": 4542,
      "deliber": 4543,
      "sons": 4544,
      "valuable": 4545,
      "massive": 4546,
      "referen": 4547,
      "wake": 4548,
      "trick": 4549,
      "genuine": 4550,
      "ological": 4551,
      "asy": 4552,
      "input": 4553,
      "objective": 4554,
      "impression": 4555,
      "stories": 4556,
      "diplo": 4557,
      "visual": 4558,
      "hung": 4559,
      "seats": 4560,
      "venture": 4561,
      "divided": 4562,
      "explanation": 4563,
      "falling": 4564,
      "hire": 4565,
      "valley": 4566,
      "iting": 4567,
      "boss": 4568,
      "technique": 4569,
      "magazine": 4570,
      "margin": 4571,
      "strict": 4572,
      "asser": 4573,
      "mix": 4574,
      "ville": 4575,
      "leaf": 4576,
      "unlike": 4577,
      "buying": 4578,
      "kinds": 4579,
      "handed": 4580,
      "granted": 4581,
      "abol": 4582,
      "dogs": 4583,
      "positions": 4584,
      "proof": 4585,
      "gow": 4586,
      "paralle": 4587,
      "dial": 4588,
      "marx": 4589,
      "african": 4590,
      "agent": 4591,
      "challeng": 4592,
      "indicated": 4593,
      "purchase": 4594,
      "contains": 4595,
      "bind": 4596,
      "cock": 4597,
      "rie": 4598,
      "channel": 4599,
      "veget": 4600,
      "medic": 4601,
      "roads": 4602,
      "nodded": 4603,
      "wednes": 4604,
      "missing": 4605,
      "strongly": 4606,
      "friendly": 4607,
      "causes": 4608,
      "permanent": 4609,
      "unions": 4610,
      "independence": 4611,
      "uncertain": 4612,
      "teeth": 4613,
      "ria": 4614,
      "encouraged": 4615,
      "unfortunately": 4616,
      "noise": 4617,
      "i.e.": 4618,
      "attribut": 4619,
      "contracts": 4620,
      "controver": 4621,
      "aint": 4622,
      "practices": 4623,
      "launched": 4624,
      "lap": 4625,
      "mond": 4626,
      "somewhat": 4627,
      "structures": 4628,
      "yorkshire": 4629,
      "experiment": 4630,
      "peas": 4631,
      "approval": 4632,
      "passeng": 4633,
      "discover": 4634,
      "producing": 4635,
      "andrew": 4636,
      "entr": 4637,
      "scope": 4638,
      "cycl": 4639,
      "nose": 4640,
      "mixed": 4641,
      "intellect": 4642,
      "plat": 4643,
      "rapidly": 4644,
      "ssed": 4645,
      "councill": 4646,
      "processing": 4647,
      "objects": 4648,
      "volunt": 4649,
      "nineteenth": 4650,
      "prop": 4651,
      "shock": 4652,
      "pop": 4653,
      "lucky": 4654,
      "d'": 4655,
      "utter": 4656,
      "declared": 4657,
      "contemporary": 4658,
      "mob": 4659,
      "closer": 4660,
      "bedroom": 4661,
      "combination": 4662,
      "pra": 4663,
      "spain": 4664,
      "print": 4665,
      "similarly": 4666,
      "poe": 4667,
      "temperature": 4668,
      "interpretation": 4669,
      "grew": 4670,
      "score": 4671,
      "tough": 4672,
      "constitu": 4673,
      "lip": 4674,
      "worried": 4675,
      "shi": 4676,
      "cers": 4677,
      "doctors": 4678,
      "implications": 4679,
      "warning": 4680,
      "taste": 4681,
      "moon": 4682,
      "cream": 4683,
      "terrible": 4684,
      "funding": 4685,
      "absor": 4686,
      "vul": 4687,
      "brush": 4688,
      "amongst": 4689,
      "aser": 4690,
      "eighty": 4691,
      "equivalent": 4692,
      "originally": 4693,
      "comed": 4694,
      "laughed": 4695,
      "afterwards": 4696,
      "stable": 4697,
      "evident": 4698,
      "documents": 4699,
      "harm": 4700,
      "lords": 4701,
      "d.": 4702,
      "dale": 4703,
      "ourselves": 4704,
      "inking": 4705,
      "bush": 4706,
      "max": 4707,
      "organiz": 4708,
      "breakfast": 4709,
      "manufacturing": 4710,
      "scen": 4711,
      "facing": 4712,
      "chron": 4713,
      "inese": 4714,
      "kil": 4715,
      "combined": 4716,
      "lind": 4717,
      "plane": 4718,
      "advertising": 4719,
      "welsh": 4720,
      "wage": 4721,
      "indian": 4722,
      "cancer": 4723,
      "wondered": 4724,
      "distur": 4725,
      "democracy": 4726,
      "crucial": 4727,
      "eating": 4728,
      "wave": 4729,
      "catholic": 4730,
      "mony": 4731,
      "o'clock": 4732,
      "abilities": 4733,
      "retain": 4734,
      "llor": 4735,
      "tank": 4736,
      "soil": 4737,
      "datab": 4738,
      "omen": 4739,
      "links": 4740,
      "accommodation": 4741,
      "dna": 4742,
      "funny": 4743,
      "religion": 4744,
      "simon": 4745,
      "consequences": 4746,
      "subsequent": 4747,
      "happening": 4748,
      "selected": 4749,
      "lod": 4750,
      "thoughts": 4751,
      "mike": 4752,
      "cuts": 4753,
      "dependent": 4754,
      "directors": 4755,
      "unknown": 4756,
      "chel": 4757,
      "confirm": 4758,
      "steve": 4759,
      "guy": 4760,
      "chee": 4761,
      "smooth": 4762,
      "struggle": 4763,
      "conservation": 4764,
      "objectives": 4765,
      "brilli": 4766,
      "sensitive": 4767,
      "wednesday": 4768,
      "tired": 4769,
      "tay": 4770,
      "perfectly": 4771,
      "allows": 4772,
      "harry": 4773,
      "parliamentary": 4774,
      "virtually": 4775,
      "icket": 4776,
      "visited": 4777,
      "naturally": 4778,
      "prosecut": 4779,
      "industries": 4780,
      "tenance": 4781,
      "philip": 4782,
      "cards": 4783,
      "tact": 4784,
      "listening": 4785,
      "parent": 4786,
      "towns": 4787,
      "middles": 4788,
      "assets": 4789,
      "judic": 4790,
      "comments": 4791,
      "deter": 4792,
      "assistance": 4793,
      "invited": 4794,
      "myster": 4795,
      "offices": 4796,
      "keen": 4797,
      "fined": 4798,
      "enh": 4799,
      "movements": 4800,
      "organised": 4801,
      "shift": 4802,
      "nations": 4803,
      "obser": 4804,
      "dict": 4805,
      "gie": 4806,
      "admit": 4807,
      "endo": 4808,
      "glasgow": 4809,
      "sequence": 4810,
      "ost": 4811,
      "societies": 4812,
      "arranged": 4813,
      "smell": 4814,
      "chinese": 4815,
      "labor": 4816,
      "conventional": 4817,
      "enterprise": 4818,
      "settled": 4819,
      "agon": 4820,
      "russia": 4821,
      "helping": 4822,
      "considering": 4823,
      "stir": 4824,
      "suffering": 4825,
      "carbon": 4826,
      "ruth": 4827,
      "squad": 4828,
      "plastic": 4829,
      "fool": 4830,
      "ome": 4831,
      "ski": 4832,
      "gallery": 4833,
      "diction": 4834,
      "kids": 4835,
      "acle": 4836,
      "crowd": 4837,
      "pages": 4838,
      "bitter": 4839,
      "artist": 4840,
      "rows": 4841,
      "assumed": 4842,
      "medium": 4843,
      "reader": 4844,
      "badly": 4845,
      "rab": 4846,
      "spoken": 4847,
      "specialist": 4848,
      "rian": 4849,
      "knit": 4850,
      "mn": 4851,
      "allowing": 4852,
      "describe": 4853,
      "opposed": 4854,
      "controls": 4855,
      "argue": 4856,
      "bang": 4857,
      "astr": 4858,
      "atures": 4859,
      "involving": 4860,
      "chant": 4861,
      "plu": 4862,
      "reply": 4863,
      "stephen": 4864,
      "departments": 4865,
      "increases": 4866,
      "representatives": 4867,
      "maintained": 4868,
      "somehow": 4869,
      "moreover": 4870,
      "improvement": 4871,
      "employers": 4872,
      "proposal": 4873,
      "bottle": 4874,
      "vehicle": 4875,
      "waited": 4876,
      "involve": 4877,
      "loyal": 4878,
      "pollution": 4879,
      "core": 4880,
      "mole": 4881,
      "regions": 4882,
      "proceedings": 4883,
      "faction": 4884,
      "mming": 4885,
      "ore": 4886,
      "usal": 4887,
      "regulations": 4888,
      "ffe": 4889,
      "hopes": 4890,
      "entertain": 4891,
      "homo": 4892,
      "aims": 4893,
      "involvement": 4894,
      "vised": 4895,
      "informed": 4896,
      "significantly": 4897,
      "semi": 4898,
      "junction": 4899,
      "pig": 4900,
      "talked": 4901,
      "burst": 4902,
      "stones": 4903,
      "trained": 4904,
      "rier": 4905,
      "swit": 4906,
      "passage": 4907,
      "string": 4908,
      "mood": 4909,
      "struck": 4910,
      "aust": 4911,
      "inal": 4912,
      "loan": 4913,
      "disco": 4914,
      "containing": 4915,
      "hid": 4916,
      "exerc": 4917,
      "agricultural": 4918,
      "boards": 4919,
      "haz": 4920,
      "ares": 4921,
      "rage": 4922,
      "males": 4923,
      "stayed": 4924,
      "logists": 4925,
      "communities": 4926,
      "eliza": 4927,
      "stared": 4928,
      "lingu": 4929,
      "shadow": 4930,
      "defic": 4931,
      "stars": 4932,
      "promised": 4933,
      "statements": 4934,
      "wilson": 4935,
      "recording": 4936,
      "raising": 4937,
      "rarely": 4938,
      "provisions": 4939,
      "akes": 4940,
      "ku": 4941,
      "deli": 4942,
      "stages": 4943,
      "fan": 4944,
      "revenue": 4945,
      "smoke": 4946,
      "beauty": 4947,
      "yards": 4948,
      "liquid": 4949,
      "thera": 4950,
      "embarr": 4951,
      "establishment": 4952,
      "eh": 4953,
      "ius": 4954,
      "assa": 4955,
      "hay": 4956,
      "yield": 4957,
      "yours": 4958,
      "embarrass": 4959,
      "asia": 4960,
      "distinction": 4961,
      "neare": 4962,
      "alleged": 4963,
      "involves": 4964,
      "cycle": 4965,
      "kins": 4966,
      "breach": 4967,
      "visible": 4968,
      "guilty": 4969,
      "indicate": 4970,
      "seconds": 4971,
      "properties": 4972,
      "abor": 4973,
      "corporation": 4974,
      "retail": 4975,
      "begun": 4976,
      "shell": 4977,
      "continent": 4978,
      "satisfied": 4979,
      "worker": 4980,
      "assume": 4981,
      "gene": 4982,
      "mud": 4983,
      "alive": 4984,
      "acquired": 4985,
      "kir": 4986,
      "tiff": 4987,
      "iary": 4988,
      "sugar": 4989,
      "slav": 4990,
      "supre": 4991,
      "uge": 4992,
      "deputy": 4993,
      "lifes": 4994,
      "enormous": 4995,
      "persons": 4996,
      "phenomen": 4997,
      "pleasant": 4998,
      "mortg": 4999,
      "ules": 5000,
      "grace": 5001,
      "resto": 5002,
      "inct": 5003,
      "interpre": 5004,
      "cere": 5005,
      "peak": 5006,
      "vac": 5007,
      "cel": 5008,
      "excit": 5009,
      "unusual": 5010,
      "starts": 5011,
      "competitive": 5012,
      "heavily": 5013,
      "victim": 5014,
      "rig": 5015,
      "maintenance": 5016,
      "lewis": 5017,
      "behalf": 5018,
      "leads": 5019,
      "uted": 5020,
      "weapons": 5021,
      "angry": 5022,
      "terror": 5023,
      "promp": 5024,
      "zes": 5025,
      "aming": 5026,
      "graham": 5027,
      "writers": 5028,
      "fifth": 5029,
      "false": 5030,
      "periods": 5031,
      "grade": 5032,
      "representation": 5033,
      "istan": 5034,
      "isms": 5035,
      "approxim": 5036,
      "fallen": 5037,
      "candidates": 5038,
      "federal": 5039,
      "uous": 5040,
      "compos": 5041,
      "warned": 5042,
      "flood": 5043,
      "threatened": 5044,
      "recession": 5045,
      "neut": 5046,
      "mirror": 5047,
      "actor": 5048,
      "identity": 5049,
      "perce": 5050,
      "oked": 5051,
      "connected": 5052,
      "dal": 5053,
      "item": 5054,
      "error": 5055,
      "performed": 5056,
      "cali": 5057,
      "regularly": 5058,
      "attached": 5059,
      "forgotten": 5060,
      "anywhere": 5061,
      "premis": 5062,
      "teams": 5063,
      "centu": 5064,
      "circu": 5065,
      "agents": 5066,
      "meat": 5067,
      "pub": 5068,
      "hate": 5069,
      "dramatic": 5070,
      "rupt": 5071,
      "leon": 5072,
      "emergency": 5073,
      "butter": 5074,
      "continues": 5075,
      "substit": 5076,
      "chamber": 5077,
      "amaz": 5078,
      "occupied": 5079,
      "spokesman": 5080,
      "tears": 5081,
      "computers": 5082,
      "compe": 5083,
      "iveness": 5084,
      "reluct": 5085,
      "export": 5086,
      "intervent": 5087,
      "nerv": 5088,
      "liability": 5089,
      "joe": 5090,
      "candidate": 5091,
      "voluntary": 5092,
      "itis": 5093,
      "rejected": 5094,
      "loose": 5095,
      "shoulders": 5096,
      "reflected": 5097,
      "kar": 5098,
      "criteria": 5099,
      "remove": 5100,
      "believes": 5101,
      "thy": 5102,
      "whit": 5103,
      "studied": 5104,
      "ell": 5105,
      "pregn": 5106,
      "jane": 5107,
      "contemp": 5108,
      "expans": 5109,
      "statut": 5110,
      "golden": 5111,
      "taught": 5112,
      "hugh": 5113,
      "termine": 5114,
      "ride": 5115,
      "hundreds": 5116,
      "concentration": 5117,
      "determine": 5118,
      "eration": 5119,
      "autumn": 5120,
      "jose": 5121,
      "gather": 5122,
      "framework": 5123,
      "agriculture": 5124,
      "clubs": 5125,
      "chat": 5126,
      "thatcher": 5127,
      "pled": 5128,
      "surve": 5129,
      "accompan": 5130,
      "golf": 5131,
      "thurs": 5132,
      "raw": 5133,
      "plaintiff": 5134,
      "countryside": 5135,
      "rhy": 5136,
      "theme": 5137,
      "handle": 5138,
      "bone": 5139,
      "paint": 5140,
      "pipe": 5141,
      "abroad": 5142,
      "artists": 5143,
      "licence": 5144,
      "lux": 5145,
      "pink": 5146,
      "parag": 5147,
      "lifespan": 5148,
      "aside": 5149,
      "occasionally": 5150,
      "thinks": 5151,
      "statutory": 5152,
      "brough": 5153,
      "gam": 5154,
      "oting": 5155,
      "losses": 5156,
      "tower": 5157,
      "imposed": 5158,
      "quietly": 5159,
      "answered": 5160,
      "promotion": 5161,
      "explic": 5162,
      "certific": 5163,
      "ona": 5164,
      "loud": 5165,
      "listed": 5166,
      "situations": 5167,
      "rison": 5168,
      "anticip": 5169,
      "exception": 5170,
      "racing": 5171,
      "premises": 5172,
      "promise": 5173,
      "characters": 5174,
      "tration": 5175,
      "magn": 5176,
      "yu": 5177,
      "headed": 5178,
      "suspic": 5179,
      "arguments": 5180,
      "firmly": 5181,
      "announce": 5182,
      "mostly": 5183,
      "representative": 5184,
      "electricity": 5185,
      "no.": 5186,
      "overseas": 5187,
      "robin": 5188,
      "healthy": 5189,
      "jean": 5190,
      "iders": 5191,
      "recovery": 5192,
      "stup": 5193,
      "rif": 5194,
      "relax": 5195,
      "occasions": 5196,
      "sher": 5197,
      "guid": 5198,
      "proud": 5199,
      "festi": 5200,
      "initially": 5201,
      "berg": 5202,
      "realise": 5203,
      "duties": 5204,
      "raph": 5205,
      "fee": 5206,
      "delic": 5207,
      "wool": 5208,
      "concerns": 5209,
      "examine": 5210,
      "convention": 5211,
      "advantages": 5212,
      "renew": 5213,
      "pointing": 5214,
      "unk": 5215,
      "mann": 5216,
      "mped": 5217,
      "shopping": 5218,
      "echo": 5219,
      "comprehensive": 5220,
      "mistake": 5221,
      "expansion": 5222,
      "skill": 5223,
      "perspect": 5224,
      "falls": 5225,
      "taylor": 5226,
      "predict": 5227,
      "outs": 5228,
      "options": 5229,
      "tension": 5230,
      "aces": 5231,
      "sees": 5232,
      "reci": 5233,
      "comparison": 5234,
      "foundation": 5235,
      "chancellor": 5236,
      "ulation": 5237,
      "evolution": 5238,
      "resolution": 5239,
      "intent": 5240,
      "honour": 5241,
      "hello": 5242,
      "hil": 5243,
      "mathem": 5244,
      "minent": 5245,
      "characteristics": 5246,
      "publication": 5247,
      "deliver": 5248,
      "illness": 5249,
      "consistent": 5250,
      "shortly": 5251,
      "parallel": 5252,
      "intellectual": 5253,
      "clause": 5254,
      "gained": 5255,
      "zer": 5256,
      "specifically": 5257,
      "ki": 5258,
      "currency": 5259,
      "recommended": 5260,
      "turns": 5261,
      "dressed": 5262,
      "sque": 5263,
      "herit": 5264,
      "mbling": 5265,
      "aling": 5266,
      "drama": 5267,
      "efficiency": 5268,
      "decade": 5269,
      "icing": 5270,
      "lifted": 5271,
      "arrival": 5272,
      "anna": 5273,
      "bye": 5274,
      "discre": 5275,
      "directed": 5276,
      "relating": 5277,
      "circle": 5278,
      "mam": 5279,
      "consent": 5280,
      "breaking": 5281,
      "otic": 5282,
      "registered": 5283,
      "awareness": 5284,
      "bly": 5285,
      "tues": 5286,
      "charity": 5287,
      "keeper": 5288,
      "apping": 5289,
      "nights": 5290,
      "emerged": 5291,
      "margaret": 5292,
      "denied": 5293,
      "lav": 5294,
      "holy": 5295,
      "brick": 5296,
      "israel": 5297,
      "alter": 5298,
      "iran": 5299,
      "accounting": 5300,
      "successfully": 5301,
      "reward": 5302,
      "privile": 5303,
      "passion": 5304,
      "ratio": 5305,
      "xture": 5306,
      "examined": 5307,
      "divid": 5308,
      "offence": 5309,
      "defeat": 5310,
      "usions": 5311,
      "outcome": 5312,
      "wages": 5313,
      "resistance": 5314,
      "stands": 5315,
      "cambridge": 5316,
      "creating": 5317,
      "fts": 5318,
      "guitar": 5319,
      "gang": 5320,
      "inn": 5321,
      "fitted": 5322,
      "reputation": 5323,
      "specul": 5324,
      "classic": 5325,
      "eggs": 5326,
      "bted": 5327,
      "gus": 5328,
      "belfast": 5329,
      "ache": 5330,
      "closure": 5331,
      "pression": 5332,
      "businesses": 5333,
      "commons": 5334,
      "tells": 5335,
      "negotiations": 5336,
      "emotional": 5337,
      "ura": 5338,
      "decre": 5339,
      "thursday": 5340,
      "supporters": 5341,
      "luke": 5342,
      "attended": 5343,
      "casual": 5344,
      "refuge": 5345,
      "schol": 5346,
      "subsequently": 5347,
      "coloured": 5348,
      "hs": 5349,
      "spanish": 5350,
      "essentially": 5351,
      "ml": 5352,
      "stic": 5353,
      "rog": 5354,
      "hydro": 5355,
      "uss": 5356,
      "shoes": 5357,
      "administrative": 5358,
      "global": 5359,
      "sop": 5360,
      "tasks": 5361,
      "ots": 5362,
      "donald": 5363,
      "delivery": 5364,
      "shirt": 5365,
      "notion": 5366,
      "empire": 5367,
      "diagno": 5368,
      "agencies": 5369,
      "calm": 5370,
      "middlesbrough": 5371,
      "abuse": 5372,
      "initiative": 5373,
      "losing": 5374,
      "deeply": 5375,
      "fles": 5376,
      "gardens": 5377,
      "derived": 5378,
      "blan": 5379,
      "fans": 5380,
      "seventy": 5381,
      "assistant": 5382,
      "sels": 5383,
      "sect": 5384,
      "labe": 5385,
      "remarkable": 5386,
      "ucking": 5387,
      "answers": 5388,
      "thorough": 5389,
      "ums": 5390,
      "brothers": 5391,
      "itim": 5392,
      "plays": 5393,
      "bak": 5394,
      "exemp": 5395,
      "salt": 5396,
      "specified": 5397,
      "toms": 5398,
      "recognise": 5399,
      "gradually": 5400,
      "introduce": 5401,
      "theoret": 5402,
      "edition": 5403,
      "alcohol": 5404,
      "copies": 5405,
      "driven": 5406,
      "limits": 5407,
      "collected": 5408,
      "egy": 5409,
      "classical": 5410,
      "anda": 5411,
      "elizabeth": 5412,
      "islands": 5413,
      "nichol": 5414,
      "twin": 5415,
      "slip": 5416,
      "juni": 5417,
      "w.": 5418,
      "sens": 5419,
      "pale": 5420,
      "dick": 5421,
      "gian": 5422,
      "marily": 5423,
      "ishment": 5424,
      "stupid": 5425,
      "idge": 5426,
      "tip": 5427,
      "adding": 5428,
      "theories": 5429,
      "lers": 5430,
      "carol": 5431,
      "aimed": 5432,
      "kings": 5433,
      "centuries": 5434,
      "extension": 5435,
      "festival": 5436,
      "mot": 5437,
      "mingham": 5438,
      "williams": 5439,
      "kit": 5440,
      "pace": 5441,
      "qualified": 5442,
      "istol": 5443,
      "lessly": 5444,
      "hills": 5445,
      "moves": 5446,
      "covering": 5447,
      "images": 5448,
      "testing": 5449,
      "era": 5450,
      "sept": 5451,
      "attempted": 5452,
      "bearing": 5453,
      "cc": 5454,
      "asm": 5455,
      "steam": 5456,
      "trol": 5457,
      "routine": 5458,
      "itals": 5459,
      "scientists": 5460,
      "silent": 5461,
      "ole": 5462,
      "kis": 5463,
      "demanded": 5464,
      "oney": 5465,
      "fishing": 5466,
      "instructions": 5467,
      "bigger": 5468,
      "pocket": 5469,
      "francis": 5470,
      "electronic": 5471,
      "churches": 5472,
      "legitim": 5473,
      "bin": 5474,
      "socialist": 5475,
      "retirement": 5476,
      "uncle": 5477,
      "fox": 5478,
      "ruling": 5479,
      "rical": 5480,
      "residents": 5481,
      "mini": 5482,
      "magic": 5483,
      "texts": 5484,
      "printed": 5485,
      "soldiers": 5486,
      "greek": 5487,
      "intelligence": 5488,
      "intervention": 5489,
      "burden": 5490,
      "nearby": 5491,
      "arrested": 5492,
      "wished": 5493,
      "ule": 5494,
      "furnit": 5495,
      "supreme": 5496,
      "consum": 5497,
      "birmingham": 5498,
      "furniture": 5499,
      "rant": 5500,
      "cad": 5501,
      "experiences": 5502,
      "een": 5503,
      "modu": 5504,
      "transl": 5505,
      "recei": 5506,
      "rugby": 5507,
      "films": 5508,
      "newly": 5509,
      "grin": 5510,
      "fant": 5511,
      "exceed": 5512,
      "dominant": 5513,
      "regime": 5514,
      "paragraph": 5515,
      "tut": 5516,
      "insu": 5517,
      "catalo": 5518,
      "tied": 5519,
      "ensions": 5520,
      "stuck": 5521,
      "councils": 5522,
      "partnership": 5523,
      "tuesday": 5524,
      "prize": 5525,
      "drinking": 5526,
      "inquiry": 5527,
      "leis": 5528,
      "depth": 5529,
      "restaurant": 5530,
      "persist": 5531,
      "minority": 5532,
      "acquis": 5533,
      "dealt": 5534,
      "arise": 5535,
      "nomin": 5536,
      "scow": 5537,
      "missions": 5538,
      "lio": 5539,
      "discrimin": 5540,
      "aids": 5541,
      "philosophy": 5542,
      "tables": 5543,
      "vest": 5544,
      "wooden": 5545,
      "drove": 5546,
      "winner": 5547,
      "survive": 5548,
      "precisely": 5549,
      "brilliant": 5550,
      "managing": 5551,
      "gil": 5552,
      "sheep": 5553,
      "athy": 5554,
      "graphic": 5555,
      "parad": 5556,
      "shore": 5557,
      "yl": 5558,
      "protein": 5559,
      "locked": 5560,
      "zeal": 5561,
      "structural": 5562,
      "ov": 5563,
      "satisfaction": 5564,
      "newspapers": 5565,
      "mature": 5566,
      "supplied": 5567,
      "mothers": 5568,
      "lymp": 5569,
      "returning": 5570,
      "priority": 5571,
      "seventeen": 5572,
      "resign": 5573,
      "volun": 5574,
      "literary": 5575,
      "module": 5576,
      "ador": 5577,
      "helpful": 5578,
      "consequence": 5579,
      "cult": 5580,
      "beer": 5581,
      "grate": 5582,
      "scul": 5583,
      "inations": 5584,
      "hamp": 5585,
      "los": 5586,
      "waters": 5587,
      "crew": 5588,
      "mathemat": 5589,
      "travelling": 5590,
      "sigh": 5591,
      "inton": 5592,
      "painted": 5593,
      "nurse": 5594,
      "oes": 5595,
      "arian": 5596,
      "inspector": 5597,
      "gulf": 5598,
      "incorpor": 5599,
      "grat": 5600,
      "launch": 5601,
      "genes": 5602,
      "arrangement": 5603,
      "chick": 5604,
      "circul": 5605,
      "crash": 5606,
      "accompanied": 5607,
      "destru": 5608,
      "spell": 5609,
      "scra": 5610,
      "draft": 5611,
      "virgin": 5612,
      "ucing": 5613,
      "attacks": 5614,
      "kore": 5615,
      "championship": 5616,
      "jur": 5617,
      "keys": 5618,
      "pilot": 5619,
      "studio": 5620,
      "signal": 5621,
      "haust": 5622,
      "apple": 5623,
      "aston": 5624,
      "ifications": 5625,
      "h.": 5626,
      "gran": 5627,
      "gery": 5628,
      "placing": 5629,
      "hoping": 5630,
      "convin": 5631,
      "category": 5632,
      "concerning": 5633,
      "defendant": 5634,
      "fears": 5635,
      "wedding": 5636,
      "accurate": 5637,
      "disabled": 5638,
      "presum": 5639,
      "intim": 5640,
      "yo": 5641,
      "categories": 5642,
      "bours": 5643,
      "personnel": 5644,
      "restricted": 5645,
      "leisure": 5646,
      "exhaust": 5647,
      "lecture": 5648,
      "arbit": 5649,
      "graphical": 5650,
      "twist": 5651,
      "hidden": 5652,
      "cue": 5653,
      "dian": 5654,
      "makers": 5655,
      "vated": 5656,
      "gging": 5657,
      "tong": 5658,
      "oce": 5659,
      "atl": 5660,
      "reaching": 5661,
      "kent": 5662,
      "stamp": 5663,
      "supplement": 5664,
      "osing": 5665,
      "dle": 5666,
      "wore": 5667,
      "grave": 5668,
      "database": 5669,
      "alb": 5670,
      "languages": 5671,
      "exciting": 5672,
      "measured": 5673,
      "adults": 5674,
      "evil": 5675,
      "consumption": 5676,
      "ja": 5677,
      "represents": 5678,
      "superi": 5679,
      "reasonably": 5680,
      "remote": 5681,
      "cricket": 5682,
      "convinced": 5683,
      "vy": 5684,
      "manif": 5685,
      "frustr": 5686,
      "laughter": 5687,
      "earnings": 5688,
      "neil": 5689,
      "washington": 5690,
      "preparation": 5691,
      "curtain": 5692,
      "patrick": 5693,
      "greatly": 5694,
      "guests": 5695,
      "dir": 5696,
      "phrase": 5697,
      "horiz": 5698,
      "summ": 5699,
      "occurs": 5700,
      "handic": 5701,
      "broadcast": 5702,
      "mortgage": 5703,
      "expectations": 5704,
      "regulation": 5705,
      "lone": 5706,
      "findings": 5707,
      "oul": 5708,
      "abstr": 5709,
      "sarah": 5710,
      "possession": 5711,
      "tent": 5712,
      "random": 5713,
      "pitch": 5714,
      "paintings": 5715,
      "pread": 5716,
      "letion": 5717,
      "founded": 5718,
      "auton": 5719,
      "politicians": 5720,
      "stall": 5721,
      "conv": 5722,
      "citizens": 5723,
      "insp": 5724,
      "rod": 5725,
      "wides": 5726,
      "addy": 5727,
      "approaches": 5728,
      "vig": 5729,
      "marry": 5730,
      "guarantee": 5731,
      "sper": 5732,
      "remed": 5733,
      "landscape": 5734,
      "pron": 5735,
      "riding": 5736,
      "explicit": 5737,
      "norman": 5738,
      "ownership": 5739,
      "fled": 5740,
      "judgment": 5741,
      "causing": 5742,
      "constitutional": 5743,
      "mixture": 5744,
      "injured": 5745,
      "joseph": 5746,
      "archy": 5747,
      "recover": 5748,
      "dominated": 5749,
      "receiving": 5750,
      "swing": 5751,
      "dispute": 5752,
      "presentation": 5753,
      "insisted": 5754,
      "umin": 5755,
      "bern": 5756,
      "fisher": 5757,
      "inch": 5758,
      "obli": 5759,
      "t.": 5760,
      "holes": 5761,
      "musical": 5762,
      "pap": 5763,
      "nervous": 5764,
      "widespread": 5765,
      "admir": 5766,
      "imperial": 5767,
      "intr": 5768,
      "employee": 5769,
      "solicitor": 5770,
      "cd": 5771,
      "ik": 5772,
      "amend": 5773,
      "helps": 5774,
      "brad": 5775,
      "darkness": 5776,
      "requirement": 5777,
      "branches": 5778,
      "affair": 5779,
      "guidance": 5780,
      "divor": 5781,
      "tools": 5782,
      "respectively": 5783,
      "experts": 5784,
      "blame": 5785,
      "nigel": 5786,
      "cow": 5787,
      "votes": 5788,
      "fix": 5789,
      "uniform": 5790,
      "soul": 5791,
      "alongside": 5792,
      "feels": 5793,
      "repeat": 5794,
      "strengthen": 5795,
      "presumably": 5796,
      "plot": 5797,
      "backed": 5798,
      "statistics": 5799,
      "complicated": 5800,
      "components": 5801,
      "enemy": 5802,
      "bent": 5803,
      "photographs": 5804,
      "andy": 5805,
      "begins": 5806,
      "throat": 5807,
      "privat": 5808,
      "therapy": 5809,
      "gle": 5810,
      "optim": 5811,
      "numerous": 5812,
      "birthday": 5813,
      "pover": 5814,
      "disappeared": 5815,
      "duke": 5816,
      "oct.": 5817,
      "deaf": 5818,
      "briefly": 5819,
      "bureaucr": 5820,
      "rever": 5821,
      "herent": 5822,
      "button": 5823,
      "column": 5824,
      "brings": 5825,
      "exists": 5826,
      "dynam": 5827,
      "iny": 5828,
      "determination": 5829,
      "permission": 5830,
      "resulting": 5831,
      "killing": 5832,
      "comprom": 5833,
      "cured": 5834,
      "transferred": 5835,
      "weigh": 5836,
      "awful": 5837,
      "sav": 5838,
      "recognized": 5839,
      "hunting": 5840,
      "bills": 5841,
      "sters": 5842,
      "ladies": 5843,
      "acknowled": 5844,
      "bench": 5845,
      "extend": 5846,
      "flower": 5847,
      "nia": 5848,
      "semin": 5849,
      "crossed": 5850,
      "register": 5851,
      "achievement": 5852,
      "regre": 5853,
      "ghters": 5854,
      "serving": 5855,
      "compensation": 5856,
      "alarm": 5857,
      "promote": 5858,
      "sophis": 5859,
      "escap": 5860,
      "attered": 5861,
      "supplies": 5862,
      "desc": 5863,
      "esty": 5864,
      "characteristic": 5865,
      "interior": 5866,
      "alliance": 5867,
      "sake": 5868,
      "flash": 5869,
      "eco": 5870,
      "hanging": 5871,
      "moor": 5872,
      "survival": 5873,
      "johnson": 5874,
      "wart": 5875,
      "dock": 5876,
      "saved": 5877,
      "juli": 5878,
      "altogether": 5879,
      "kni": 5880,
      "agger": 5881,
      "lists": 5882,
      "impressive": 5883,
      "jan.": 5884,
      "closing": 5885,
      "stein": 5886,
      "acking": 5887,
      "femin": 5888,
      "triu": 5889,
      "truly": 5890,
      "finds": 5891,
      "ller": 5892,
      "poverty": 5893,
      "degre": 5894,
      "symptoms": 5895,
      "cater": 5896,
      "seal": 5897,
      "shareholders": 5898,
      "chemis": 5899,
      "employer": 5900,
      "sophistic": 5901,
      "publish": 5902,
      "holds": 5903,
      "meter": 5904,
      "aine": 5905,
      "supporting": 5906,
      "ignored": 5907,
      "hide": 5908,
      "dem": 5909,
      "terr": 5910,
      "preferred": 5911,
      "qualities": 5912,
      "smoking": 5913,
      "practition": 5914,
      "thrown": 5915,
      "thetic": 5916,
      "discussions": 5917,
      "poet": 5918,
      "fla": 5919,
      "infect": 5920,
      "fucking": 5921,
      "tested": 5922,
      "primarily": 5923,
      "stomach": 5924,
      "wire": 5925,
      "everywhere": 5926,
      "concluded": 5927,
      "recall": 5928,
      "delive": 5929,
      "bic": 5930,
      "lun": 5931,
      "haw": 5932,
      "quer": 5933,
      "outstanding": 5934,
      "destroyed": 5935,
      "neat": 5936,
      "ignor": 5937,
      "neighbours": 5938,
      "rear": 5939,
      "territ": 5940,
      "agreements": 5941,
      "territory": 5942,
      "desir": 5943,
      "basically": 5944,
      "clinical": 5945,
      "savings": 5946,
      "whel": 5947,
      "logist": 5948,
      "strategic": 5949,
      "flag": 5950,
      "steady": 5951,
      "spite": 5952,
      "ication": 5953,
      "serge": 5954,
      "degrees": 5955,
      "hart": 5956,
      "fewer": 5957,
      "wra": 5958,
      "cake": 5959,
      "dc": 5960,
      "bull": 5961,
      "definitely": 5962,
      "ado": 5963,
      "delivered": 5964,
      "reducing": 5965,
      "orted": 5966,
      "visits": 5967,
      "oppon": 5968,
      "iel": 5969,
      "upset": 5970,
      "suggestion": 5971,
      "cottage": 5972,
      "assumption": 5973,
      "inevitably": 5974,
      "intend": 5975,
      "whenever": 5976,
      "mont": 5977,
      "dispos": 5978,
      "perspective": 5979,
      "dated": 5980,
      "lex": 5981,
      "monet": 5982,
      "sail": 5983,
      "vehicles": 5984,
      "contents": 5985,
      "engage": 5986,
      "swed": 5987,
      "til": 5988,
      "epis": 5989,
      "symbo": 5990,
      "spons": 5991,
      "economics": 5992,
      "ads": 5993,
      "convict": 5994,
      "moments": 5995,
      "elimin": 5996,
      "eighteen": 5997,
      "joining": 5998,
      "vas": 5999,
      "ulated": 6000,
      "kong": 6001,
      "expl": 6002,
      "publishing": 6003,
      "umes": 6004,
      "concentrate": 6005,
      "jacket": 6006,
      "hier": 6007,
      "interval": 6008,
      "heading": 6009,
      "gross": 6010,
      "handling": 6011,
      "cathe": 6012,
      "organizations": 6013,
      "prepare": 6014,
      "sept.": 6015,
      "unity": 6016,
      "encing": 6017,
      "chances": 6018,
      "sia": 6019,
      "crete": 6020,
      "theoretical": 6021,
      "constantly": 6022,
      "amounts": 6023,
      "evaluation": 6024,
      "blin": 6025,
      "courage": 6026,
      "redund": 6027,
      "cliff": 6028,
      "files": 6029,
      "anxious": 6030,
      "scand": 6031,
      "emo": 6032,
      "rubb": 6033,
      "gift": 6034,
      "rocks": 6035,
      "frequency": 6036,
      "abandoned": 6037,
      "mend": 6038,
      "fier": 6039,
      "hong": 6040,
      "storage": 6041,
      "thu": 6042,
      "surrounding": 6043,
      "entrance": 6044,
      "magis": 6045,
      "nover": 6046,
      "mentally": 6047,
      "logies": 6048,
      "gly": 6049,
      "sorts": 6050,
      "historic": 6051,
      "in'": 6052,
      "raf": 6053,
      "conducted": 6054,
      "pacific": 6055,
      "km": 6056,
      "assum": 6057,
      "genet": 6058,
      "itated": 6059,
      "experiments": 6060,
      "responsib": 6061,
      "victi": 6062,
      "encouraging": 6063,
      "evalu": 6064,
      "anth": 6065,
      "matches": 6066,
      "fet": 6067,
      "ruption": 6068,
      "residential": 6069,
      "visiting": 6070,
      "shru": 6071,
      "manual": 6072,
      "pla": 6073,
      "urs": 6074,
      "junior": 6075,
      "hut": 6076,
      "triumph": 6077,
      "moscow": 6078,
      "posts": 6079,
      "notting": 6080,
      "vulner": 6081,
      "variable": 6082,
      "boots": 6083,
      "nursing": 6084,
      "wishes": 6085,
      "superior": 6086,
      "dio": 6087,
      "princess": 6088,
      "excuse": 6089,
      "ili": 6090,
      "aux": 6091,
      "canada": 6092,
      "knife": 6093,
      "nov.": 6094,
      "maid": 6095,
      "faster": 6096,
      "lis": 6097,
      "adap": 6098,
      "prisoners": 6099,
      "occupation": 6100,
      "constructed": 6101,
      "enda": 6102,
      "circuit": 6103,
      "matthe": 6104,
      "trace": 6105,
      "worn": 6106,
      "leather": 6107,
      "consciousness": 6108,
      "patri": 6109,
      "convenient": 6110,
      "fought": 6111,
      "minster": 6112,
      "mechanism": 6113,
      "contrad": 6114,
      "dismissed": 6115,
      "rese": 6116,
      "striking": 6117,
      "boxes": 6118,
      "waves": 6119,
      "unexpected": 6120,
      "ee": 6121,
      "hunt": 6122,
      "ora": 6123,
      "satisfactory": 6124,
      "covers": 6125,
      "realized": 6126,
      "bristol": 6127,
      "bargain": 6128,
      "dates": 6129,
      "roots": 6130,
      "hyper": 6131,
      "resulted": 6132,
      "ano": 6133,
      "patch": 6134,
      "engaged": 6135,
      "volunte": 6136,
      "alling": 6137,
      "spare": 6138,
      "belt": 6139,
      "compat": 6140,
      "contrary": 6141,
      "palest": 6142,
      "intens": 6143,
      "hospitals": 6144,
      "fees": 6145,
      "resource": 6146,
      "cine": 6147,
      "articles": 6148,
      "instinct": 6149,
      "threw": 6150,
      "ave": 6151,
      "ini": 6152,
      "califor": 6153,
      "washing": 6154,
      "lon": 6155,
      "device": 6156,
      "grab": 6157,
      "cheer": 6158,
      "turnover": 6159,
      "ulate": 6160,
      "fitting": 6161,
      "dawn": 6162,
      "tendency": 6163,
      "likes": 6164,
      "burning": 6165,
      "vity": 6166,
      "retired": 6167,
      "certificate": 6168,
      "songs": 6169,
      "mult": 6170,
      "binding": 6171,
      "alp": 6172,
      "chor": 6173,
      "illustrated": 6174,
      "puts": 6175,
      "vene": 6176,
      "shaped": 6177,
      "furthermore": 6178,
      "beaten": 6179,
      "expo": 6180,
      "compound": 6181,
      "enthusiasm": 6182,
      "anni": 6183,
      "slu": 6184,
      "toler": 6185,
      "ensus": 6186,
      "swimming": 6187,
      "alled": 6188,
      "maker": 6189,
      "chu": 6190,
      "considerably": 6191,
      "boost": 6192,
      "personality": 6193,
      "extraordinary": 6194,
      "underlying": 6195,
      "dimension": 6196,
      "dec.": 6197,
      "servants": 6198,
      "latin": 6199,
      "integrated": 6200,
      "lloy": 6201,
      "reception": 6202,
      "heath": 6203,
      "atively": 6204,
      "varied": 6205,
      "attacked": 6206,
      "instruments": 6207,
      "implementation": 6208,
      "magistr": 6209,
      "differ": 6210,
      "instrument": 6211,
      "cous": 6212,
      "orange": 6213,
      "airport": 6214,
      "scored": 6215,
      "rolled": 6216,
      "smiling": 6217,
      "stepped": 6218,
      "celer": 6219,
      "tennis": 6220,
      "committees": 6221,
      "violent": 6222,
      "eighteenth": 6223,
      "minds": 6224,
      "aunt": 6225,
      "observation": 6226,
      "aha": 6227,
      "prescri": 6228,
      "sixth": 6229,
      "infection": 6230,
      "pride": 6231,
      "holidays": 6232,
      "enjo": 6233,
      "monetary": 6234,
      "arthur": 6235,
      "ears": 6236,
      "relate": 6237,
      "tels": 6238,
      "intense": 6239,
      "gig": 6240,
      "pian": 6241,
      "endor": 6242,
      "vat": 6243,
      "wallow": 6244,
      "arrive": 6245,
      "chin": 6246,
      "bling": 6247,
      "suring": 6248,
      "ultimately": 6249,
      "marine": 6250,
      "sentences": 6251,
      "cepts": 6252,
      "contest": 6253,
      "giant": 6254,
      "victims": 6255,
      "newcastle": 6256,
      "pressing": 6257,
      "provin": 6258,
      "integration": 6259,
      "innocent": 6260,
      "stiff": 6261,
      "sue": 6262,
      "rank": 6263,
      "flav": 6264,
      "gates": 6265,
      "pear": 6266,
      "summary": 6267,
      "staying": 6268,
      "enforce": 6269,
      "approximately": 6270,
      "climate": 6271,
      "contributions": 6272,
      "generated": 6273,
      "disk": 6274,
      "distant": 6275,
      "americans": 6276,
      "repair": 6277,
      "dol": 6278,
      "secondly": 6279,
      "wright": 6280,
      "architecture": 6281,
      "approached": 6282,
      "samples": 6283,
      "prev": 6284,
      "portra": 6285,
      "psychological": 6286,
      "fortunate": 6287,
      "delighted": 6288,
      "bother": 6289,
      "taxes": 6290,
      "touched": 6291,
      "percentage": 6292,
      "responsibilities": 6293,
      "honey": 6294,
      "ambit": 6295,
      "discovery": 6296,
      "confusion": 6297,
      "protected": 6298,
      "chal": 6299,
      "bott": 6300,
      "strat": 6301,
      "packed": 6302,
      "camera": 6303,
      "iner": 6304,
      "designs": 6305,
      "addressed": 6306,
      "divers": 6307,
      "reforms": 6308,
      "asion": 6309,
      "readily": 6310,
      "stolen": 6311,
      "accum": 6312,
      "attracted": 6313,
      "dozen": 6314,
      "disaster": 6315,
      "childhood": 6316,
      "cheese": 6317,
      "brook": 6318,
      "rhyth": 6319,
      "concentrated": 6320,
      "gence": 6321,
      "monitoring": 6322,
      "beck": 6323,
      "indu": 6324,
      "colleg": 6325,
      "applies": 6326,
      "bless": 6327,
      "shed": 6328,
      "surge": 6329,
      "judges": 6330,
      "spin": 6331,
      "excite": 6332,
      "isolated": 6333,
      "singing": 6334,
      "villages": 6335,
      "damp": 6336,
      "continuous": 6337,
      "ampton": 6338,
      "confess": 6339,
      "dressing": 6340,
      "uled": 6341,
      "pier": 6342,
      "seed": 6343,
      "unemployed": 6344,
      "nottingham": 6345,
      "heaven": 6346,
      "mountains": 6347,
      "manufacturers": 6348,
      "bby": 6349,
      "eved": 6350,
      "organized": 6351,
      "defe": 6352,
      "dying": 6353,
      "grateful": 6354,
      "flour": 6355,
      "distributed": 6356,
      "spectac": 6357,
      "knock": 6358,
      "cree": 6359,
      "uel": 6360,
      "infin": 6361,
      "ros": 6362,
      "tenant": 6363,
      "differenti": 6364,
      "buyer": 6365,
      "helen": 6366,
      "medicine": 6367,
      "plas": 6368,
      "restrictions": 6369,
      "sheets": 6370,
      "automatically": 6371,
      "quoted": 6372,
      "roles": 6373,
      "rober": 6374,
      "irect": 6375,
      "ounced": 6376,
      "f.": 6377,
      "nd": 6378,
      "neu": 6379,
      "fourteen": 6380,
      "gments": 6381,
      "frequent": 6382,
      "zero": 6383,
      "tian": 6384,
      "backs": 6385,
      "sixteen": 6386,
      "convey": 6387,
      "layer": 6388,
      "acute": 6389,
      "zealand": 6390,
      "rers": 6391,
      "vet": 6392,
      "loans": 6393,
      "acks": 6394,
      "rises": 6395,
      "exposed": 6396,
      "chose": 6397,
      "marsh": 6398,
      "variation": 6399,
      "poetry": 6400,
      "strategies": 6401,
      "hey": 6402,
      "proto": 6403,
      "spiritual": 6404,
      "stab": 6405,
      "universal": 6406,
      "keith": 6407,
      "assured": 6408,
      "hed": 6409,
      "asty": 6410,
      "geoff": 6411,
      "landlord": 6412,
      "pered": 6413,
      "holly": 6414,
      "investors": 6415,
      "ethnic": 6416,
      "depending": 6417,
      "defect": 6418,
      "tended": 6419,
      "icester": 6420,
      "leap": 6421,
      "sensible": 6422,
      "symbol": 6423,
      "formula": 6424,
      "calculated": 6425,
      "checked": 6426,
      "modules": 6427,
      "laboratory": 6428,
      "dirty": 6429,
      "expense": 6430,
      "enses": 6431,
      "inevitable": 6432,
      "sharing": 6433,
      "estimate": 6434,
      "bru": 6435,
      "machin": 6436,
      "sounded": 6437,
      "mild": 6438,
      "undertaken": 6439,
      "participation": 6440,
      "shouted": 6441,
      "desirable": 6442,
      "anny": 6443,
      "demonstrated": 6444,
      "dread": 6445,
      "surgery": 6446,
      "cried": 6447,
      "deliberately": 6448,
      "aper": 6449,
      "reliable": 6450,
      "irrit": 6451,
      "illing": 6452,
      "judicial": 6453,
      "drivers": 6454,
      "borne": 6455,
      "complaints": 6456,
      "silly": 6457,
      "oxy": 6458,
      "glanced": 6459,
      "sufficiently": 6460,
      "territor": 6461,
      "jar": 6462,
      "scan": 6463,
      "pole": 6464,
      "feb.": 6465,
      "trend": 6466,
      "zone": 6467,
      "concrete": 6468,
      "shield": 6469,
      "native": 6470,
      "grammar": 6471,
      "penalty": 6472,
      "sending": 6473,
      "reserve": 6474,
      "ipped": 6475,
      "els": 6476,
      "reporting": 6477,
      "component": 6478,
      "headquarters": 6479,
      "universities": 6480,
      "topic": 6481,
      "highlight": 6482,
      "ading": 6483,
      "auth": 6484,
      "angers": 6485,
      "acceptance": 6486,
      "pip": 6487,
      "concepts": 6488,
      "neglect": 6489,
      "pressures": 6490,
      "fabric": 6491,
      "corrid": 6492,
      "cattle": 6493,
      "leton": 6494,
      "surprisingly": 6495,
      "barbar": 6496,
      "enders": 6497,
      "overcome": 6498,
      "bron": 6499,
      "clever": 6500,
      "acquisition": 6501,
      "inser": 6502,
      "multiple": 6503,
      "weakness": 6504,
      "ckets": 6505,
      "respons": 6506,
      "survived": 6507,
      "overwhel": 6508,
      "cloth": 6509,
      "contribute": 6510,
      "nels": 6511,
      "astro": 6512,
      "undou": 6513,
      "writes": 6514,
      "stretch": 6515,
      "indirect": 6516,
      "damaged": 6517,
      "claiming": 6518,
      "linguistic": 6519,
      "millions": 6520,
      "dil": 6521,
      "cooking": 6522,
      "carriage": 6523,
      "glasses": 6524,
      "och": 6525,
      "critics": 6526,
      "psychology": 6527,
      "actors": 6528,
      "targets": 6529,
      "flexible": 6530,
      "gust": 6531,
      "wand": 6532,
      "gathered": 6533,
      "treasury": 6534,
      "dd": 6535,
      "gord": 6536,
      "cotton": 6537,
      "ultimate": 6538,
      "relatives": 6539,
      "returns": 6540,
      "upstairs": 6541,
      "commonly": 6542,
      "statist": 6543,
      "aler": 6544,
      "dutch": 6545,
      "replacement": 6546,
      "undoubted": 6547,
      "tum": 6548,
      "stit": 6549,
      "ocean": 6550,
      "ito": 6551,
      "governor": 6552,
      "feeding": 6553,
      "swallow": 6554,
      "staring": 6555,
      "irts": 6556,
      "anxiety": 6557,
      "howard": 6558,
      "productive": 6559,
      "outer": 6560,
      "describes": 6561,
      "victorian": 6562,
      "bones": 6563,
      "thereby": 6564,
      "oles": 6565,
      "tickets": 6566,
      "collective": 6567,
      "storm": 6568,
      "expertise": 6569,
      "shr": 6570,
      "responses": 6571,
      "solicitors": 6572,
      "revolutionary": 6573,
      "graduate": 6574,
      "sculpt": 6575,
      "metro": 6576,
      "influenced": 6577,
      "sleeping": 6578,
      "aneous": 6579,
      "modest": 6580,
      "cathedr": 6581,
      "recruit": 6582,
      "maggie": 6583,
      "improving": 6584,
      "eleg": 6585,
      "lease": 6586,
      "acceler": 6587,
      "morris": 6588,
      "strain": 6589,
      "ruled": 6590,
      "athing": 6591,
      "curve": 6592,
      "woods": 6593,
      "limp": 6594,
      "incidence": 6595,
      "filling": 6596,
      "consultation": 6597,
      "counts": 6598,
      "exhibit": 6599,
      "licen": 6600,
      "kiss": 6601,
      "dave": 6602,
      "distinguish": 6603,
      "hook": 6604,
      "iment": 6605,
      "phe": 6606,
      "printer": 6607,
      "format": 6608,
      "adm": 6609,
      "produces": 6610,
      "crystal": 6611,
      "cart": 6612,
      "voy": 6613,
      "atlantic": 6614,
      "manip": 6615,
      "appreciate": 6616,
      "arbitr": 6617,
      "sergeant": 6618,
      "pak": 6619,
      "swind": 6620,
      "australian": 6621,
      "weekly": 6622,
      "seller": 6623,
      "zil": 6624,
      "personally": 6625,
      "audit": 6626,
      "gary": 6627,
      "berlin": 6628,
      "stronger": 6629,
      "advertise": 6630,
      "horizon": 6631,
      "aug.": 6632,
      "roger": 6633,
      "cleared": 6634,
      "cence": 6635,
      "pent": 6636,
      "progressive": 6637,
      "oak": 6638,
      "icting": 6639,
      "risks": 6640,
      "narr": 6641,
      "recommendations": 6642,
      "trous": 6643,
      "regarding": 6644,
      "ancing": 6645,
      "sophisticated": 6646,
      "eg": 6647,
      "ulster": 6648,
      "medie": 6649,
      "bars": 6650,
      "charlie": 6651,
      "solutions": 6652,
      "occasional": 6653,
      "advised": 6654,
      "medieval": 6655,
      "attract": 6656,
      "gos": 6657,
      "hers": 6658,
      "sadd": 6659,
      "consists": 6660,
      "orous": 6661,
      "mptions": 6662,
      "premier": 6663,
      "flesh": 6664,
      "agan": 6665,
      "completion": 6666,
      "tunnel": 6667,
      "injuries": 6668,
      "victoria": 6669,
      "frightened": 6670,
      "justified": 6671,
      "priest": 6672,
      "california": 6673,
      "illegal": 6674,
      "matthew": 6675,
      "tical": 6676,
      "collapse": 6677,
      "vine": 6678,
      "thrust": 6679,
      "grim": 6680,
      "specim": 6681,
      "bowl": 6682,
      "keeps": 6683,
      "alexander": 6684,
      "poison": 6685,
      "platform": 6686,
      "incent": 6687,
      "quiries": 6688,
      "puzz": 6689,
      "shame": 6690,
      "functional": 6691,
      "migration": 6692,
      "strand": 6693,
      "variations": 6694,
      "impressed": 6695,
      "creative": 6696,
      "purely": 6697,
      "controversi": 6698,
      "passengers": 6699,
      "existed": 6700,
      "fascin": 6701,
      "summit": 6702,
      "retained": 6703,
      "compul": 6704,
      "stressed": 6705,
      "preparing": 6706,
      "pour": 6707,
      "memories": 6708,
      "sink": 6709,
      "mounted": 6710,
      "authors": 6711,
      "gordon": 6712,
      "aer": 6713,
      "holl": 6714,
      "composition": 6715,
      "tongue": 6716,
      "tam": 6717,
      "root": 6718,
      "marginal": 6719,
      "tale": 6720,
      "publicity": 6721,
      "xon": 6722,
      "isons": 6723,
      "wanting": 6724,
      "operative": 6725,
      "succeeded": 6726,
      "councillor": 6727,
      "pupil": 6728,
      "tile": 6729,
      "universe": 6730,
      "shor": 6731,
      "ushed": 6732,
      "excitement": 6733,
      "researchers": 6734,
      "taxation": 6735,
      "washed": 6736,
      "estimates": 6737,
      "inity": 6738,
      "terry": 6739,
      "benefic": 6740,
      "dreams": 6741,
      "dwell": 6742,
      "vations": 6743,
      "stores": 6744,
      "define": 6745,
      "mining": 6746,
      "swift": 6747,
      "aqu": 6748,
      "lucy": 6749,
      "ctic": 6750,
      "smart": 6751,
      "demanding": 6752,
      "angel": 6753,
      "dancing": 6754,
      "devoted": 6755,
      "bags": 6756,
      "chop": 6757,
      "potato": 6758,
      "q.v.": 6759,
      "imagination": 6760,
      "fortune": 6761,
      "instruction": 6762,
      "displayed": 6763,
      "ardon": 6764,
      "wned": 6765,
      "colleges": 6766,
      "quot": 6767,
      "pond": 6768,
      "yers": 6769,
      "nurses": 6770,
      "consequently": 6771,
      "nt": 6772,
      "ambig": 6773,
      "awarded": 6774,
      "exposure": 6775,
      "tribun": 6776,
      "itative": 6777,
      "clay": 6778,
      "forming": 6779,
      "metap": 6780,
      "steep": 6781,
      "cott": 6782,
      "discretion": 6783,
      "deals": 6784,
      "ferences": 6785,
      "ister": 6786,
      "bold": 6787,
      "versions": 6788,
      "chemistry": 6789,
      "equation": 6790,
      "pene": 6791,
      "gains": 6792,
      "judgement": 6793,
      "render": 6794,
      "races": 6795,
      "buried": 6796,
      "skilled": 6797,
      "colin": 6798,
      "distinguished": 6799,
      "cleaning": 6800,
      "laughing": 6801,
      "durham": 6802,
      "schedule": 6803,
      "dot": 6804,
      "ieth": 6805,
      "nhs": 6806,
      "pill": 6807,
      "atom": 6808,
      "glance": 6809,
      "realistic": 6810,
      "bore": 6811,
      "cloud": 6812,
      "louis": 6813,
      "bass": 6814,
      "timber": 6815,
      "spon": 6816,
      "landing": 6817,
      "institutional": 6818,
      "rolling": 6819,
      "adopt": 6820,
      "mos": 6821,
      "tier": 6822,
      "suggesting": 6823,
      "vell": 6824,
      "interaction": 6825,
      "besides": 6826,
      "explains": 6827,
      "condem": 6828,
      "laura": 6829,
      "logic": 6830,
      "furn": 6831,
      "wings": 6832,
      "ffield": 6833,
      "bands": 6834,
      "icated": 6835,
      "amin": 6836,
      "kirk": 6837,
      "ama": 6838,
      "incred": 6839,
      "assumptions": 6840,
      "anthro": 6841,
      "ione": 6842,
      "relaxed": 6843,
      "charter": 6844,
      "beds": 6845,
      "ske": 6846,
      "decades": 6847,
      "mortality": 6848,
      "cze": 6849,
      "chairs": 6850,
      "wives": 6851,
      "indication": 6852,
      "slipped": 6853,
      "coordin": 6854,
      "ctr": 6855,
      "worthy": 6856,
      "leicester": 6857,
      "olymp": 6858,
      "loo": 6859,
      "artific": 6860,
      "gers": 6861,
      "mol": 6862,
      "tub": 6863,
      "desperate": 6864,
      "potentially": 6865,
      "compass": 6866,
      "perceived": 6867,
      "chip": 6868,
      "profile": 6869,
      "balanced": 6870,
      "confused": 6871,
      "coalition": 6872,
      "grants": 6873,
      "poem": 6874,
      "catalogue": 6875,
      "plates": 6876,
      "fate": 6877,
      "pulling": 6878,
      "resolved": 6879,
      "anc": 6880,
      "derby": 6881,
      "guest": 6882,
      "bacter": 6883,
      "inge": 6884,
      "tends": 6885,
      "insect": 6886,
      "thed": 6887,
      "weed": 6888,
      "generate": 6889,
      "coron": 6890,
      "excluded": 6891,
      "recon": 6892,
      "walker": 6893,
      "improvements": 6894,
      "gic": 6895,
      "pow": 6896,
      "porter": 6897,
      "dublin": 6898,
      "assurance": 6899,
      "sovere": 6900,
      "crossing": 6901,
      "ows": 6902,
      "compare": 6903,
      "deaths": 6904,
      "sovereign": 6905,
      "horri": 6906,
      "aber": 6907,
      "philosoph": 6908,
      "liest": 6909,
      "cely": 6910,
      "machinery": 6911,
      "liers": 6912,
      "reo": 6913,
      "etc.": 6914,
      "engineers": 6915,
      "automatic": 6916,
      "possibilities": 6917,
      "ilit": 6918,
      "simult": 6919,
      "chapel": 6920,
      "mexic": 6921,
      "gear": 6922,
      "organic": 6923,
      "twentieth": 6924,
      "ignore": 6925,
      "vulnerable": 6926,
      "mers": 6927,
      "dum": 6928,
      "stretched": 6929,
      "oning": 6930,
      "emper": 6931,
      "experimental": 6932,
      "juris": 6933,
      "iser": 6934,
      "capt": 6935,
      "aneously": 6936,
      "adapt": 6937,
      "confined": 6938,
      "strip": 6939,
      "tid": 6940,
      "informal": 6941,
      "ogue": 6942,
      "opera": 6943,
      "petrol": 6944,
      "solve": 6945,
      "caster": 6946,
      "swindon": 6947,
      "amic": 6948,
      "processor": 6949,
      "meals": 6950,
      "chocol": 6951,
      "voting": 6952,
      "scots": 6953,
      "converted": 6954,
      "shooting": 6955,
      "knees": 6956,
      "regret": 6957,
      "wol": 6958,
      "boundaries": 6959,
      "nearest": 6960,
      "vague": 6961,
      "germans": 6962,
      "reverse": 6963,
      "babies": 6964,
      "harder": 6965,
      "glen": 6966,
      "consul": 6967,
      "refuse": 6968,
      "gaze": 6969,
      "drum": 6970,
      "beliefs": 6971,
      "yan": 6972,
      "destruction": 6973,
      "inches": 6974,
      "attempting": 6975,
      "declar": 6976,
      "conclusions": 6977,
      "goslav": 6978,
      "romantic": 6979,
      "studying": 6980,
      "bald": 6981,
      "quantity": 6982,
      "cruel": 6983,
      "acked": 6984,
      "demonstrate": 6985,
      "deficit": 6986,
      "transaction": 6987,
      "divisions": 6988,
      "ridge": 6989,
      "lloyd": 6990,
      "interviews": 6991,
      "doub": 6992,
      "brow": 6993,
      "iest": 6994,
      "awards": 6995,
      "ghan": 6996,
      "riers": 6997,
      "transition": 6998,
      "separated": 6999,
      "squee": 7000,
      "mould": 7001,
      "lawyers": 7002,
      "owen": 7003,
      "roberts": 7004,
      "bust": 7005,
      "gut": 7006,
      "notably": 7007,
      "educated": 7008,
      "announcement": 7009,
      "permitted": 7010,
      "craw": 7011,
      "chemicals": 7012,
      "patron": 7013,
      "buck": 7014,
      "farmer": 7015,
      "instant": 7016,
      "whispered": 7017,
      "letting": 7018,
      "anthony": 7019,
      "fired": 7020,
      "operated": 7021,
      "speakers": 7022,
      "veter": 7023,
      "carpet": 7024,
      "rd": 7025,
      "invent": 7026,
      "sharply": 7027,
      "absent": 7028,
      "doctr": 7029,
      "considerations": 7030,
      "registration": 7031,
      "baker": 7032,
      "aly": 7033,
      "breast": 7034,
      "breathing": 7035,
      "silk": 7036,
      "shit": 7037,
      "farming": 7038,
      "professionals": 7039,
      "iter": 7040,
      "brazil": 7041,
      "investigate": 7042,
      "persuade": 7043,
      "agenda": 7044,
      "generous": 7045,
      "undoubtedly": 7046,
      "mare": 7047,
      "qualifications": 7048,
      "alien": 7049,
      "bathroom": 7050,
      "rice": 7051,
      "encoun": 7052,
      "alice": 7053,
      "mount": 7054,
      "pakistan": 7055,
      "foc": 7056,
      "boom": 7057,
      "knee": 7058,
      "nett": 7059,
      "capitalist": 7060,
      "indicates": 7061,
      "earl": 7062,
      "representing": 7063,
      "sain": 7064,
      "conservatives": 7065,
      "mummy": 7066,
      "rivers": 7067,
      "hotels": 7068,
      "ceiling": 7069,
      "suspended": 7070,
      "surrounded": 7071,
      "agu": 7072,
      "cathedral": 7073,
      "dos": 7074,
      "resort": 7075,
      "crip": 7076,
      "essex": 7077,
      "gger": 7078,
      "humour": 7079,
      "heating": 7080,
      "clare": 7081,
      "softly": 7082,
      "yugoslav": 7083,
      "jewish": 7084,
      "bulk": 7085,
      "wondering": 7086,
      "ghost": 7087,
      "foster": 7088,
      "assessed": 7089,
      "breeding": 7090,
      "mping": 7091,
      "mutual": 7092,
      "domain": 7093,
      "loch": 7094,
      "cheaper": 7095,
      "blocks": 7096,
      "failing": 7097,
      "fleet": 7098,
      "guidelines": 7099,
      "citizen": 7100,
      "electrical": 7101,
      "magnific": 7102,
      "jail": 7103,
      "drawings": 7104,
      "dollar": 7105,
      "dent": 7106,
      "trains": 7107,
      "interpreted": 7108,
      "nicholas": 7109,
      "bc": 7110,
      "scor": 7111,
      "versary": 7112,
      "infr": 7113,
      "advoc": 7114,
      "nell": 7115,
      "asle": 7116,
      "uding": 7117,
      "chart": 7118,
      "solved": 7119,
      "dare": 7120,
      "ida": 7121,
      "discourse": 7122,
      "tender": 7123,
      "rescue": 7124,
      "consumers": 7125,
      "prominent": 7126,
      "wholly": 7127,
      "barn": 7128,
      "canal": 7129,
      "roughly": 7130,
      "sectors": 7131,
      "offences": 7132,
      "fraud": 7133,
      "guardian": 7134,
      "rhe": 7135,
      "boats": 7136,
      "liable": 7137,
      "cable": 7138,
      "tenham": 7139,
      "jumped": 7140,
      "eager": 7141,
      "oliver": 7142,
      "argues": 7143,
      "gab": 7144,
      "eric": 7145,
      "mayor": 7146,
      "inadequate": 7147,
      "temple": 7148,
      "welcomed": 7149,
      "departure": 7150,
      "logically": 7151,
      "accordingly": 7152,
      "diana": 7153,
      "swee": 7154,
      "implied": 7155,
      "drunk": 7156,
      "raints": 7157,
      "voices": 7158,
      "exports": 7159,
      "ashes": 7160,
      "coup": 7161,
      "rol": 7162,
      "assault": 7163,
      "thames": 7164,
      "gastric": 7165,
      "toile": 7166,
      "jet": 7167,
      "itarian": 7168,
      "bast": 7169,
      "steven": 7170,
      "nowhere": 7171,
      "underground": 7172,
      "neutral": 7173,
      "tremend": 7174,
      "asleep": 7175,
      "guards": 7176,
      "admission": 7177,
      "flew": 7178,
      "dining": 7179,
      "lessons": 7180,
      "damages": 7181,
      "neglig": 7182,
      "album": 7183,
      "province": 7184,
      "pushing": 7185,
      "sate": 7186,
      "classroom": 7187,
      "fancy": 7188,
      "cheque": 7189,
      "drain": 7190,
      "engineer": 7191,
      "drinks": 7192,
      "lesson": 7193,
      "shakes": 7194,
      "controversial": 7195,
      "depression": 7196,
      "rix": 7197,
      "panic": 7198,
      "ensu": 7199,
      "amate": 7200,
      "climbed": 7201,
      "spat": 7202,
      "contributed": 7203,
      "kevin": 7204,
      "billy": 7205,
      "sessions": 7206,
      "identification": 7207,
      "oring": 7208,
      "suff": 7209,
      "entering": 7210,
      "gay": 7211,
      "arising": 7212,
      "magnet": 7213,
      "tort": 7214,
      "stun": 7215,
      "summon": 7216,
      "assign": 7217,
      "vak": 7218,
      "bean": 7219,
      "pope": 7220,
      "undertaking": 7221,
      "customs": 7222,
      "resid": 7223,
      "ticket": 7224,
      "tab": 7225,
      "splend": 7226,
      "facility": 7227,
      "urged": 7228,
      "penny": 7229,
      "intermedi": 7230,
      "archae": 7231,
      "connect": 7232,
      "jord": 7233,
      "rho": 7234,
      "llers": 7235,
      "explore": 7236,
      "punishment": 7237,
      "aggressive": 7238,
      "rubbish": 7239,
      "glow": 7240,
      "paused": 7241,
      "printing": 7242,
      "ortion": 7243,
      "stake": 7244,
      "technic": 7245,
      "knocked": 7246,
      "resigned": 7247,
      "desert": 7248,
      "reminded": 7249,
      "masters": 7250,
      "albert": 7251,
      "preference": 7252,
      "elabor": 7253,
      "intensive": 7254,
      "titles": 7255,
      "nasty": 7256,
      "submitted": 7257,
      "miller": 7258,
      "coverage": 7259,
      "conform": 7260,
      "copper": 7261,
      "k.": 7262,
      "anno": 7263,
      "igning": 7264,
      "dimin": 7265,
      "sab": 7266,
      "harbour": 7267,
      "landed": 7268,
      "chic": 7269,
      "wherever": 7270,
      "mystery": 7271,
      "remarks": 7272,
      "perception": 7273,
      "participants": 7274,
      "insight": 7275,
      "conversion": 7276,
      "adds": 7277,
      "curi": 7278,
      "immun": 7279,
      "hiv": 7280,
      "caring": 7281,
      "worldwide": 7282,
      "bike": 7283,
      "aven": 7284,
      "obligation": 7285,
      "leaned": 7286,
      "lighting": 7287,
      "mrs.": 7288,
      "owed": 7289,
      "adventure": 7290,
      "deny": 7291,
      "subscri": 7292,
      "travelled": 7293,
      "barely": 7294,
      "ode": 7295,
      "abstract": 7296,
      "dens": 7297,
      "trop": 7298,
      "connections": 7299,
      "cheek": 7300,
      "banking": 7301,
      "guns": 7302,
      "cliffe": 7303,
      "straw": 7304,
      "physi": 7305,
      "prospects": 7306,
      "kg": 7307,
      "polish": 7308,
      "inth": 7309,
      "lowest": 7310,
      "anglo": 7311,
      "glor": 7312,
      "lawyer": 7313,
      "threatening": 7314,
      "reserves": 7315,
      "devil": 7316,
      "inspired": 7317,
      "pity": 7318,
      "terminal": 7319,
      "kelly": 7320,
      "sheffield": 7321,
      "douglas": 7322,
      "devices": 7323,
      "naked": 7324,
      "directions": 7325,
      "phenomenon": 7326,
      "zi": 7327,
      "append": 7328,
      "tube": 7329,
      "forests": 7330,
      "swept": 7331,
      "stewart": 7332,
      "thirteen": 7333,
      "arer": 7334,
      "clou": 7335,
      "formally": 7336,
      "grain": 7337,
      "winners": 7338,
      "planet": 7339,
      "effectiveness": 7340,
      "scrat": 7341,
      "rings": 7342,
      "prest": 7343,
      "satell": 7344,
      "ata": 7345,
      "identical": 7346,
      "listened": 7347,
      "presidential": 7348,
      "removal": 7349,
      "uncertainty": 7350,
      "hin": 7351,
      "variables": 7352,
      "intelligent": 7353,
      "tha": 7354,
      "disappointed": 7355,
      "osity": 7356,
      "altered": 7357,
      "subtle": 7358,
      "lett": 7359,
      "ortho": 7360,
      "illa": 7361,
      "ambul": 7362,
      "christop": 7363,
      "rained": 7364,
      "minded": 7365,
      "commander": 7366,
      "aero": 7367,
      "egypt": 7368,
      "propri": 7369,
      "joke": 7370,
      "learnt": 7371,
      "chicken": 7372,
      "mick": 7373,
      "prosper": 7374,
      "oo": 7375,
      "substance": 7376,
      "viewed": 7377,
      "allowance": 7378,
      "aced": 7379,
      "nock": 7380,
      "solar": 7381,
      "establishing": 7382,
      "slovak": 7383,
      "ux": 7384,
      "itude": 7385,
      "electoral": 7386,
      "avoided": 7387,
      "acknowledged": 7388,
      "forcing": 7389,
      "myth": 7390,
      "ridicul": 7391,
      "rebe": 7392,
      "surplus": 7393,
      "ders": 7394,
      "rupted": 7395,
      "resignation": 7396,
      "trousers": 7397,
      "correctly": 7398,
      "federation": 7399,
      "typically": 7400,
      "clust": 7401,
      "turkey": 7402,
      "emperor": 7403,
      "stored": 7404,
      "ritual": 7405,
      "disposal": 7406,
      "inspir": 7407,
      "ende": 7408,
      "shine": 7409,
      "earned": 7410,
      "namely": 7411,
      "sweep": 7412,
      "sussex": 7413,
      "weapon": 7414,
      "westminster": 7415,
      "styles": 7416,
      "composed": 7417,
      "clothing": 7418,
      "summar": 7419,
      "excited": 7420,
      "corresponding": 7421,
      "beam": 7422,
      "trail": 7423,
      "russell": 7424,
      "curious": 7425,
      "nap": 7426,
      "label": 7427,
      "libraries": 7428,
      "nold": 7429,
      "exclusive": 7430,
      "rating": 7431,
      "lover": 7432,
      "susan": 7433,
      "visitor": 7434,
      "stuart": 7435,
      "manifest": 7436,
      "searching": 7437,
      "computing": 7438,
      "acquire": 7439,
      "gill": 7440,
      "realize": 7441,
      "climbing": 7442,
      "daddy": 7443,
      "asset": 7444,
      "gloucestershire": 7445,
      "divorce": 7446,
      "genetic": 7447,
      "tible": 7448,
      "distinctive": 7449,
      "gib": 7450,
      "tissue": 7451,
      "reflects": 7452,
      "lb": 7453,
      "oke": 7454,
      "dere": 7455,
      "ola": 7456,
      "graphics": 7457,
      "villa": 7458,
      "observations": 7459,
      "deposit": 7460,
      "cp": 7461,
      "mouse": 7462,
      "stability": 7463,
      "lawrence": 7464,
      "monthly": 7465,
      "ifer": 7466,
      "prayer": 7467,
      "pregnant": 7468,
      "maria": 7469,
      "errors": 7470,
      "fiction": 7471,
      "davies": 7472,
      "lion": 7473,
      "responded": 7474,
      "oxygen": 7475,
      "mobile": 7476,
      "restored": 7477,
      "recovered": 7478,
      "foods": 7479,
      "maintaining": 7480,
      "iable": 7481,
      "transactions": 7482,
      "polar": 7483,
      "christopher": 7484,
      "permit": 7485,
      "complement": 7486,
      "boundary": 7487,
      "installed": 7488,
      "agne": 7489,
      "references": 7490,
      "withdra": 7491,
      "equity": 7492,
      "sheer": 7493,
      "cia": 7494,
      "picking": 7495,
      "nament": 7496,
      "tackle": 7497,
      "scenes": 7498,
      "urgent": 7499,
      "ideology": 7500,
      "pav": 7501,
      "enna": 7502,
      "hardware": 7503,
      "amen": 7504,
      "caution": 7505,
      "compo": 7506,
      "spection": 7507,
      "sciences": 7508,
      "ranging": 7509,
      "suspected": 7510,
      "bernard": 7511,
      "secured": 7512,
      "shoot": 7513,
      "pairs": 7514,
      "statistical": 7515,
      "trials": 7516,
      "dismis": 7517,
      "politan": 7518,
      "passes": 7519,
      "acknowledge": 7520,
      "neath": 7521,
      "fax": 7522,
      "syll": 7523,
      "ila": 7524,
      "suic": 7525,
      "rachel": 7526,
      "trends": 7527,
      "dp": 7528,
      "clarke": 7529,
      "mant": 7530,
      "shrugged": 7531,
      "enables": 7532,
      "asian": 7533,
      "eva": 7534,
      "script": 7535,
      "immen": 7536,
      "generations": 7537,
      "cigaret": 7538,
      "mills": 7539,
      "emerge": 7540,
      "prosecution": 7541,
      "magistrates": 7542,
      "cigarette": 7543,
      "forecast": 7544,
      "talent": 7545,
      "favoured": 7546,
      "fted": 7547,
      "daughters": 7548,
      "gender": 7549,
      "irs": 7550,
      "rena": 7551,
      "continental": 7552,
      "endors": 7553,
      "marie": 7554,
      "prevail": 7555,
      "crop": 7556,
      "routes": 7557,
      "fond": 7558,
      "alous": 7559,
      "ggy": 7560,
      "biological": 7561,
      "incur": 7562,
      "poland": 7563,
      "contacts": 7564,
      "brave": 7565,
      "rape": 7566,
      "suggestions": 7567,
      "enjoying": 7568,
      "tons": 7569,
      "locations": 7570,
      "reckon": 7571,
      "tracks": 7572,
      "ani": 7573,
      "dean": 7574,
      "lamp": 7575,
      "culti": 7576,
      "hend": 7577,
      "incorporated": 7578,
      "lest": 7579,
      "andre": 7580,
      "concentrations": 7581,
      "compromise": 7582,
      "recognize": 7583,
      "socio": 7584,
      "ark": 7585,
      "everyday": 7586,
      "dox": 7587,
      "horror": 7588,
      "respective": 7589,
      "mechanical": 7590,
      "chronic": 7591,
      "kate": 7592,
      "deta": 7593,
      "earn": 7594,
      "sympathy": 7595,
      "chocolate": 7596,
      "discount": 7597,
      "awk": 7598,
      "bonds": 7599,
      "pad": 7600,
      "envelo": 7601,
      "kuwait": 7602,
      "oxfordshire": 7603,
      "accordance": 7604,
      "discrimination": 7605,
      "anniversary": 7606,
      "cran": 7607,
      "warrant": 7608,
      "appearing": 7609,
      "artificial": 7610,
      "agers": 7611,
      "expecting": 7612,
      "brig": 7613,
      "navy": 7614,
      "policeman": 7615,
      "superb": 7616,
      "traditionally": 7617,
      "signals": 7618,
      "wells": 7619,
      "thorn": 7620,
      "sored": 7621,
      "pless": 7622,
      "blast": 7623,
      "companion": 7624,
      "funeral": 7625,
      "ita": 7626,
      "unfair": 7627,
      "trap": 7628,
      "sket": 7629,
      "liar": 7630,
      "merchant": 7631,
      "thoroughly": 7632,
      "fragment": 7633,
      "jess": 7634,
      "solo": 7635,
      "abbey": 7636,
      "angles": 7637,
      "prejud": 7638,
      "tourist": 7639,
      "doubts": 7640,
      "profound": 7641,
      "sustained": 7642,
      "nig": 7643,
      "cole": 7644,
      "straightforward": 7645,
      "illy": 7646,
      "persuaded": 7647,
      "immense": 7648,
      "kim": 7649,
      "humans": 7650,
      "collections": 7651,
      "easter": 7652,
      "bris": 7653,
      "guin": 7654,
      "colone": 7655,
      "util": 7656,
      "clut": 7657,
      "harsh": 7658,
      "ulcer": 7659,
      "associations": 7660,
      "breaks": 7661,
      "chiat": 7662,
      "declaration": 7663,
      "rust": 7664,
      "scientist": 7665,
      "sandwich": 7666,
      "advise": 7667,
      "cancell": 7668,
      "digital": 7669,
      "asks": 7670,
      "hurry": 7671,
      "justify": 7672,
      "psychiat": 7673,
      "withdrawal": 7674,
      "eag": 7675,
      "lance": 7676,
      "orship": 7677,
      "shaw": 7678,
      "alpha": 7679,
      "lamb": 7680,
      "jackson": 7681,
      "enhance": 7682,
      "attain": 7683,
      "specially": 7684,
      "las": 7685,
      "flexibility": 7686,
      "tories": 7687,
      "circular": 7688,
      "usively": 7689,
      "declined": 7690,
      "conviction": 7691,
      "creatures": 7692,
      "icked": 7693,
      "backing": 7694,
      "confront": 7695,
      "dose": 7696,
      "availability": 7697,
      "diseas": 7698,
      "microsoft": 7699,
      "mechanisms": 7700,
      "pile": 7701,
      "pione": 7702,
      "reign": 7703,
      "damn": 7704,
      "practitioners": 7705,
      "compatible": 7706,
      "reactions": 7707,
      "harris": 7708,
      "entertainment": 7709,
      "server": 7710,
      "eff": 7711,
      "constable": 7712,
      "wildlife": 7713,
      "beating": 7714,
      "correspondent": 7715,
      "serb": 7716,
      "seve": 7717,
      "st.": 7718,
      "waist": 7719,
      "expenses": 7720,
      "spark": 7721,
      "rium": 7722,
      "sisters": 7723,
      "rigid": 7724,
      "traged": 7725,
      "concert": 7726,
      "pep": 7727,
      "analyst": 7728,
      "llen": 7729,
      "ounce": 7730,
      "passenger": 7731,
      "ieties": 7732,
      "phosp": 7733,
      "clinton": 7734,
      "affection": 7735,
      "barry": 7736,
      "sexuality": 7737,
      "councillors": 7738,
      "propag": 7739,
      "anthropo": 7740,
      "chlor": 7741,
      "hazard": 7742,
      "batt": 7743,
      "bosn": 7744,
      "salary": 7745,
      "tenants": 7746,
      "obliged": 7747,
      "reflection": 7748,
      "clerk": 7749,
      "blank": 7750,
      "garage": 7751,
      "formerly": 7752,
      "rud": 7753,
      "accus": 7754,
      "estates": 7755,
      "harmon": 7756,
      "shake": 7757,
      "treasure": 7758,
      "fulfil": 7759,
      "fraction": 7760,
      "focused": 7761,
      "arc": 7762,
      "liz": 7763,
      "empir": 7764,
      "publications": 7765,
      "diver": 7766,
      "democrats": 7767,
      "ilton": 7768,
      "applying": 7769,
      "muscles": 7770,
      "priorities": 7771,
      "hibited": 7772,
      "shocked": 7773,
      "fibre": 7774,
      "insul": 7775,
      "securities": 7776,
      "accessible": 7777,
      "frozen": 7778,
      "sof": 7779,
      "identif": 7780,
      "conception": 7781,
      "diplomatic": 7782,
      "switched": 7783,
      "ateral": 7784,
      "magnificent": 7785,
      "shapes": 7786,
      "taxi": 7787,
      "bp": 7788,
      "spectacular": 7789,
      "limin": 7790,
      "allen": 7791,
      "warmth": 7792,
      "awkward": 7793,
      "shots": 7794,
      "comparable": 7795,
      "cycling": 7796,
      "gathering": 7797,
      "deck": 7798,
      "swan": 7799,
      "possessed": 7800,
      "isolation": 7801,
      "piano": 7802,
      "portfo": 7803,
      "colonel": 7804,
      "deciding": 7805,
      "rolls": 7806,
      "deeper": 7807,
      "enhanced": 7808,
      "tremendous": 7809,
      "ament": 7810,
      "inhabit": 7811,
      "restoration": 7812,
      "clark": 7813,
      "heritage": 7814,
      "inspection": 7815,
      "manor": 7816,
      "productivity": 7817,
      "sid": 7818,
      "decent": 7819,
      "implies": 7820,
      "rubber": 7821,
      "palestin": 7822,
      "cinema": 7823,
      "pence": 7824,
      "hev": 7825,
      "intest": 7826,
      "voters": 7827,
      "chapters": 7828,
      "accidents": 7829,
      "reluctant": 7830,
      "marvell": 7831,
      "imports": 7832,
      "assuming": 7833,
      "motive": 7834,
      "escaped": 7835,
      "discussing": 7836,
      "loving": 7837,
      "diary": 7838,
      "advent": 7839,
      "forum": 7840,
      "sailing": 7841,
      "primit": 7842,
      "sociology": 7843,
      "earliest": 7844,
      "sian": 7845,
      "deposits": 7846,
      "bible": 7847,
      "kn": 7848,
      "noble": 7849,
      "worship": 7850,
      "sip": 7851,
      "strictly": 7852,
      "exercises": 7853,
      "friendship": 7854,
      "physically": 7855,
      "happily": 7856,
      "mbs": 7857,
      "designer": 7858,
      "mathematics": 7859,
      "governing": 7860,
      "controlling": 7861,
      "republican": 7862,
      "colonial": 7863,
      "minus": 7864,
      "happiness": 7865,
      "corridor": 7866,
      "outlined": 7867,
      "dried": 7868,
      "dedicated": 7869,
      "literally": 7870,
      "sized": 7871,
      "interface": 7872,
      "interim": 7873,
      "nether": 7874,
      "singer": 7875,
      "sympathe": 7876,
      "situated": 7877,
      "opha": 7878,
      "topics": 7879,
      "valued": 7880,
      "stroke": 7881,
      "dign": 7882,
      "thal": 7883,
      "impose": 7884,
      "derek": 7885,
      "sweat": 7886,
      "pursue": 7887,
      "surveys": 7888,
      "ensuring": 7889,
      "females": 7890,
      "ashing": 7891,
      "judged": 7892,
      "radiation": 7893,
      "lid": 7894,
      "onia": 7895,
      "ara": 7896,
      "caut": 7897,
      "lightly": 7898,
      "cules": 7899,
      "controversy": 7900,
      "articul": 7901,
      "slide": 7902,
      "korea": 7903,
      "bail": 7904,
      "lessness": 7905,
      "constraints": 7906,
      "physics": 7907,
      "messages": 7908,
      "legitimate": 7909,
      "plun": 7910,
      "orton": 7911,
      "legend": 7912,
      "rees": 7913,
      "pecu": 7914,
      "whereby": 7915,
      "portu": 7916,
      "satisfy": 7917,
      "metric": 7918,
      "marshall": 7919,
      "compete": 7920,
      "evans": 7921,
      "gesture": 7922,
      "itable": 7923,
      "overnight": 7924,
      "flats": 7925,
      "attach": 7926,
      "accent": 7927,
      "phoned": 7928,
      "jimmy": 7929,
      "fry": 7930,
      "commented": 7931,
      "mg": 7932,
      "ply": 7933,
      "wag": 7934,
      "acious": 7935,
      "vag": 7936,
      "tropical": 7937,
      "hem": 7938,
      "signing": 7939,
      "bisho": 7940,
      "sponsored": 7941,
      "isle": 7942,
      "rams": 7943,
      "eliot": 7944,
      "vor": 7945,
      "joan": 7946,
      "mack": 7947,
      "invasion": 7948,
      "scheduled": 7949,
      "funded": 7950,
      "ras": 7951,
      "refers": 7952,
      "spray": 7953,
      "ique": 7954,
      "aristo": 7955,
      "pets": 7956,
      "mask": 7957,
      "pensions": 7958,
      "walks": 7959,
      "networks": 7960,
      "teed": 7961,
      "hips": 7962,
      "grip": 7963,
      "initiatives": 7964,
      "auction": 7965,
      "allocated": 7966,
      "catering": 7967,
      "legislative": 7968,
      "bee": 7969,
      "approaching": 7970,
      "movie": 7971,
      "wolf": 7972,
      "grapher": 7973,
      "obligations": 7974,
      "verbal": 7975,
      "spen": 7976,
      "engines": 7977,
      "equil": 7978,
      "dull": 7979,
      "centred": 7980,
      "counted": 7981,
      "lace": 7982,
      "rons": 7983,
      "moore": 7984,
      "shakespe": 7985,
      "retri": 7986,
      "rope": 7987,
      "feared": 7988,
      "hp": 7989,
      "casts": 7990,
      "rally": 7991,
      "mines": 7992,
      "diam": 7993,
      "tang": 7994,
      "breathe": 7995,
      "mistak": 7996,
      "hungry": 7997,
      "dic": 7998,
      "muco": 7999,
      "refugees": 8000,
      "radi": 8001,
      "capitalism": 8002,
      "scept": 8003,
      "producers": 8004,
      "constituency": 8005,
      "og": 8006,
      "producer": 8007,
      "vertical": 8008,
      "dynamic": 8009,
      "flies": 8010,
      "parame": 8011,
      "flor": 8012,
      "sadly": 8013,
      "jurisdiction": 8014,
      "sory": 8015,
      "syl": 8016,
      "questioned": 8017,
      "modified": 8018,
      "bree": 8019,
      "allocation": 8020,
      "accompany": 8021,
      "officially": 8022,
      "guaranteed": 8023,
      "crying": 8024,
      "punch": 8025,
      "colm": 8026,
      "shaking": 8027,
      "equipped": 8028,
      "sulph": 8029,
      "..": 8030,
      "cleve": 8031,
      "pause": 8032,
      "preach": 8033,
      "tonnes": 8034,
      "bn": 8035,
      "thic": 8036,
      "devi": 8037,
      "berry": 8038,
      "supervis": 8039,
      "bou": 8040,
      "fs": 8041,
      "chips": 8042,
      "spirits": 8043,
      "loaded": 8044,
      "sally": 8045,
      "scores": 8046,
      "economies": 8047,
      "painful": 8048,
      "locally": 8049,
      "nas": 8050,
      "monu": 8051,
      "pardon": 8052,
      "thread": 8053,
      "morgan": 8054,
      "banned": 8055,
      "describing": 8056,
      "curtains": 8057,
      "demonstration": 8058,
      "iraqi": 8059,
      "convinc": 8060,
      "emotions": 8061,
      "virus": 8062,
      "railways": 8063,
      "pine": 8064,
      "conced": 8065,
      "debts": 8066,
      "purchaser": 8067,
      "som": 8068,
      "quantities": 8069,
      "cogn": 8070,
      "brus": 8071,
      "achieving": 8072,
      "hopefully": 8073,
      "mans": 8074,
      "wars": 8075,
      "competence": 8076,
      "dolph": 8077,
      "structured": 8078,
      "scrut": 8079,
      "portrait": 8080,
      "sla": 8081,
      "tide": 8082,
      "allied": 8083,
      "sighed": 8084,
      "cub": 8085,
      "expanded": 8086,
      "wrapped": 8087,
      "amazing": 8088,
      "orthodox": 8089,
      "vietnam": 8090,
      "soldier": 8091,
      "volunteers": 8092,
      "midlands": 8093,
      "successive": 8094,
      "cardiff": 8095,
      "pud": 8096,
      "sna": 8097,
      "envis": 8098,
      "dealers": 8099,
      "leys": 8100,
      "valuation": 8101,
      "dictionary": 8102,
      "infer": 8103,
      "cumb": 8104,
      "balls": 8105,
      "attendance": 8106,
      "substitute": 8107,
      "orn": 8108,
      "grasp": 8109,
      "vibr": 8110,
      "horn": 8111,
      "overwhelming": 8112,
      "desperately": 8113,
      "equilib": 8114,
      "sery": 8115,
      "arsen": 8116,
      "mured": 8117,
      "fails": 8118,
      "matur": 8119,
      "muscle": 8120,
      "dealer": 8121,
      "rin": 8122,
      "aled": 8123,
      "unhappy": 8124,
      "ppy": 8125,
      "nucle": 8126,
      "separation": 8127,
      "throwing": 8128,
      "consolid": 8129,
      "mage": 8130,
      "succession": 8131,
      "prelimin": 8132,
      "refusal": 8133,
      "nursery": 8134,
      "aspir": 8135,
      "loun": 8136,
      "outline": 8137,
      "invitation": 8138,
      "clearing": 8139,
      "shakespeare": 8140,
      "servant": 8141,
      "duration": 8142,
      "farms": 8143,
      "channels": 8144,
      "captured": 8145,
      "jacqu": 8146,
      "walter": 8147,
      "disgust": 8148,
      "ulty": 8149,
      "workshop": 8150,
      "bankrupt": 8151,
      "stag": 8152,
      "choosing": 8153,
      "ette": 8154,
      "raint": 8155,
      "boot": 8156,
      "disorder": 8157,
      "virtue": 8158,
      "oli": 8159,
      "tos": 8160,
      "cease": 8161,
      "electro": 8162,
      "liberation": 8163,
      "murmured": 8164,
      "deterior": 8165,
      "gur": 8166,
      "essence": 8167,
      "boil": 8168,
      "booking": 8169,
      "turk": 8170,
      "defeated": 8171,
      "odo": 8172,
      "diseases": 8173,
      "presu": 8174,
      "petition": 8175,
      "varying": 8176,
      "ingred": 8177,
      "lifetime": 8178,
      "prints": 8179,
      "champagne": 8180,
      "predicted": 8181,
      "erect": 8182,
      "arre": 8183,
      "midnight": 8184,
      "autonomy": 8185,
      "prevented": 8186,
      "underneath": 8187,
      "analysed": 8188,
      "preserved": 8189,
      "kur": 8190,
      "amy": 8191,
      "fluid": 8192,
      "complained": 8193,
      "jordan": 8194,
      "oesopha": 8195,
      "inher": 8196,
      "enabled": 8197,
      "sizes": 8198,
      "hammer": 8199,
      "origins": 8200,
      "imagined": 8201,
      "splendid": 8202,
      "influential": 8203,
      "encounter": 8204,
      "stair": 8205,
      "jews": 8206,
      "requiring": 8207,
      "tutor": 8208,
      "lesser": 8209,
      "relevance": 8210,
      "israeli": 8211,
      "unnecessary": 8212,
      "consensus": 8213,
      "ada": 8214,
      "swim": 8215,
      "whist": 8216,
      "creature": 8217,
      "primitive": 8218,
      "tag": 8219,
      "kel": 8220,
      "bride": 8221,
      "struggling": 8222,
      "gau": 8223,
      "figur": 8224,
      "scholar": 8225,
      "feminist": 8226,
      "tast": 8227,
      "stre": 8228,
      "subordin": 8229,
      "explaining": 8230,
      "shorter": 8231,
      "moz": 8232,
      "divide": 8233,
      "bottles": 8234,
      "igation": 8235,
      "mund": 8236,
      "terrace": 8237,
      "sums": 8238,
      "complaint": 8239,
      "terrif": 8240,
      "amendment": 8241,
      "n.": 8242,
      "acre": 8243,
      "timing": 8244,
      "recalled": 8245,
      "devast": 8246,
      "freud": 8247,
      "dating": 8248,
      "suited": 8249,
      "miners": 8250,
      "suppliers": 8251,
      "clinic": 8252,
      "manufacturer": 8253,
      "ictive": 8254,
      "shouting": 8255,
      "bund": 8256,
      "loth": 8257,
      "introducing": 8258,
      "wheels": 8259,
      "aes": 8260,
      "accomp": 8261,
      "brass": 8262,
      "carries": 8263,
      "debut": 8264,
      "rais": 8265,
      "limitations": 8266,
      "sara": 8267,
      "wre": 8268,
      "illust": 8269,
      "favourable": 8270,
      "plc": 8271,
      "ridiculous": 8272,
      "disc": 8273,
      "kinson": 8274,
      "malcolm": 8275,
      "abandon": 8276,
      "exceptional": 8277,
      "beef": 8278,
      "devon": 8279,
      "knot": 8280,
      "lifting": 8281,
      "sterling": 8282,
      "snapped": 8283,
      "mour": 8284,
      "necessity": 8285,
      "resent": 8286,
      "forever": 8287,
      "static": 8288,
      "entries": 8289,
      "tips": 8290,
      "combat": 8291,
      "stem": 8292,
      "swell": 8293,
      "ario": 8294,
      "skip": 8295,
      "toxic": 8296,
      "arse": 8297,
      "lime": 8298,
      "invari": 8299,
      "spaces": 8300,
      "luxury": 8301,
      "metry": 8302,
      "emia": 8303,
      "arises": 8304,
      "partial": 8305,
      "households": 8306,
      "marvellous": 8307,
      "isy": 8308,
      "attending": 8309,
      "programs": 8310,
      "commonwealth": 8311,
      "hurried": 8312,
      "seeming": 8313,
      "opens": 8314,
      "residence": 8315,
      "referring": 8316,
      "subsidiary": 8317,
      "equilibrium": 8318,
      "transp": 8319,
      "eyed": 8320,
      "betray": 8321,
      "justification": 8322,
      "bullet": 8323,
      "inver": 8324,
      "withdraw": 8325,
      "checking": 8326,
      "sensitivity": 8327,
      "delayed": 8328,
      "broadcasting": 8329,
      "appendix": 8330,
      "preliminary": 8331,
      "lur": 8332,
      "icking": 8333,
      "occupational": 8334,
      "bachev": 8335,
      "christianity": 8336,
      "clergy": 8337,
      "journalists": 8338,
      "payable": 8339,
      "confidential": 8340,
      "vegetables": 8341,
      "sauce": 8342,
      "duck": 8343,
      "stereo": 8344,
      "helic": 8345,
      "filter": 8346,
      "collar": 8347,
      "gorbachev": 8348,
      "rection": 8349,
      "predomin": 8350,
      "precious": 8351,
      "advisers": 8352,
      "stocks": 8353,
      "eaten": 8354,
      "accuracy": 8355,
      "poo": 8356,
      "handsome": 8357,
      "arguing": 8358,
      "bble": 8359,
      "depri": 8360,
      "directive": 8361,
      "bourne": 8362,
      "separately": 8363,
      "diamond": 8364,
      "districts": 8365,
      "cooper": 8366,
      "ela": 8367,
      "backwards": 8368,
      "tragedy": 8369,
      "soap": 8370,
      "implemented": 8371,
      "ees": 8372,
      "jon": 8373,
      "emily": 8374,
      "risen": 8375,
      "crazy": 8376,
      "allegations": 8377,
      "severely": 8378,
      "bile": 8379,
      "ige": 8380,
      "choices": 8381,
      "athlet": 8382,
      "memorial": 8383,
      "dow": 8384,
      "caroline": 8385,
      "crimes": 8386,
      "systematic": 8387,
      "combine": 8388,
      "cultures": 8389,
      "beings": 8390,
      "diagnosis": 8391,
      "receiver": 8392,
      "enterprises": 8393,
      "serves": 8394,
      "affecting": 8395,
      "complexity": 8396,
      "fen": 8397,
      "enquiry": 8398,
      "acles": 8399,
      "moist": 8400,
      "steadily": 8401,
      "detected": 8402,
      "mason": 8403,
      "coven": 8404,
      "racial": 8405,
      "accepting": 8406,
      "theft": 8407,
      "undertake": 8408,
      "despair": 8409,
      "mh": 8410,
      "infant": 8411,
      "resolve": 8412,
      "ceremony": 8413,
      "hans": 8414,
      "planted": 8415,
      "ferry": 8416,
      "halt": 8417,
      "fence": 8418,
      "buyers": 8419,
      "cousin": 8420,
      "simultaneously": 8421,
      "suicide": 8422,
      "behave": 8423,
      "excessive": 8424,
      "memb": 8425,
      "feather": 8426,
      "downstairs": 8427,
      "alternatively": 8428,
      "sparc": 8429,
      "anticipated": 8430,
      "ea": 8431,
      "transformation": 8432,
      "youngsters": 8433,
      "descript": 8434,
      "opinions": 8435,
      "prey": 8436,
      "politically": 8437,
      "canadian": 8438,
      "elegant": 8439,
      "ambulance": 8440,
      "stopping": 8441,
      "fashioned": 8442,
      "isive": 8443,
      "foss": 8444,
      "displays": 8445,
      "amateur": 8446,
      "udi": 8447,
      "inherent": 8448,
      "brut": 8449,
      "handled": 8450,
      "ctu": 8451,
      "usage": 8452,
      "guilt": 8453,
      "operational": 8454,
      "dollars": 8455,
      "thumb": 8456,
      "gregate": 8457,
      "participate": 8458,
      "izes": 8459,
      "jacob": 8460,
      "coff": 8461,
      "bett": 8462,
      "celebrated": 8463,
      "yach": 8464,
      "collecting": 8465,
      "compulsory": 8466,
      "cly": 8467,
      "refe": 8468,
      "okes": 8469,
      "longed": 8470,
      "premium": 8471,
      "isher": 8472,
      "stance": 8473,
      "upwards": 8474,
      "particles": 8475,
      "strikes": 8476,
      "leban": 8477,
      "geois": 8478,
      "metropolitan": 8479,
      "rous": 8480,
      "edges": 8481,
      "glam": 8482,
      "firstly": 8483,
      "finest": 8484,
      "sooner": 8485,
      "loads": 8486,
      "dod": 8487,
      "exagger": 8488,
      "classification": 8489,
      "habits": 8490,
      "mered": 8491,
      "substantially": 8492,
      "cleveland": 8493,
      "monopoly": 8494,
      "tapes": 8495,
      "provincial": 8496,
      "weir": 8497,
      "verb": 8498,
      "purchased": 8499,
      "nearer": 8500,
      "guild": 8501,
      "supports": 8502,
      "benjam": 8503,
      "hull": 8504,
      "jewell": 8505,
      "robb": 8506,
      "lancash": 8507,
      "crowded": 8508,
      "hann": 8509,
      "scent": 8510,
      "ideological": 8511,
      "geography": 8512,
      "lancashire": 8513,
      "suits": 8514,
      "fergus": 8515,
      "sant": 8516,
      "bourgeois": 8517,
      "inland": 8518,
      "dialogue": 8519,
      "encountered": 8520,
      "density": 8521,
      "ji": 8522,
      "innovation": 8523,
      "hughes": 8524,
      "arose": 8525,
      "bod": 8526,
      "ranks": 8527,
      "ussr": 8528,
      "fusion": 8529,
      "illumin": 8530,
      "cave": 8531,
      "floating": 8532,
      "implicit": 8533,
      "gregation": 8534,
      "narrative": 8535,
      "crops": 8536,
      "winds": 8537,
      "doctrine": 8538,
      "benjamin": 8539,
      "coinc": 8540,
      "somer": 8541,
      "remainder": 8542,
      "fers": 8543,
      "cather": 8544,
      "miser": 8545,
      "governors": 8546,
      "boring": 8547,
      "fires": 8548,
      "delicate": 8549,
      "uter": 8550,
      "supervision": 8551,
      "cats": 8552,
      "thirds": 8553,
      "ille": 8554,
      "loop": 8555,
      "riel": 8556,
      "tear": 8557,
      "ups": 8558,
      "deploy": 8559,
      "rhythm": 8560,
      "dile": 8561,
      "shy": 8562,
      "compact": 8563,
      "keynes": 8564,
      "remarked": 8565,
      "seld": 8566,
      "indul": 8567,
      "nan": 8568,
      "campbell": 8569,
      "investigations": 8570,
      "consultant": 8571,
      "gifts": 8572,
      "revel": 8573,
      "lobby": 8574,
      "amid": 8575,
      "competing": 8576,
      "measurement": 8577,
      "appointments": 8578,
      "electronics": 8579,
      "preserve": 8580,
      "legally": 8581,
      "sweden": 8582,
      "peo": 8583,
      "wins": 8584,
      "safely": 8585,
      "maps": 8586,
      "desired": 8587,
      "lp": 8588,
      "mou": 8589,
      "acres": 8590,
      "questionna": 8591,
      "flows": 8592,
      "ibly": 8593,
      "exclusively": 8594,
      "tightly": 8595,
      "influences": 8596,
      "fatal": 8597,
      "elig": 8598,
      "menu": 8599,
      "daniel": 8600,
      "prisoner": 8601,
      "peasants": 8602,
      "carl": 8603,
      "speculation": 8604,
      "satellite": 8605,
      "lasting": 8606,
      "shower": 8607,
      "technological": 8608,
      "neighbourhood": 8609,
      "loyalty": 8610,
      "newton": 8611,
      "christians": 8612,
      "sq": 8613,
      "parti": 8614,
      "onic": 8615,
      "relieved": 8616,
      "inherit": 8617,
      "obst": 8618,
      "glory": 8619,
      "magazines": 8620,
      "cited": 8621,
      "surrey": 8622,
      "slept": 8623,
      "obtaining": 8624,
      "induced": 8625,
      "powder": 8626,
      "withdrawn": 8627,
      "tune": 8628,
      "deemed": 8629,
      "hierarchy": 8630,
      "grandfather": 8631,
      "matched": 8632,
      "instances": 8633,
      "peasant": 8634,
      "praise": 8635,
      "craig": 8636,
      "lonely": 8637,
      "anton": 8638,
      "nonsense": 8639,
      "lodge": 8640,
      "seeds": 8641,
      "circles": 8642,
      "hitler": 8643,
      "hated": 8644,
      "confron": 8645,
      "alternatives": 8646,
      "barbara": 8647,
      "heim": 8648,
      "ulous": 8649,
      "impat": 8650,
      "restore": 8651,
      "det": 8652,
      "remedy": 8653,
      "arity": 8654,
      "seized": 8655,
      "juice": 8656,
      "sic": 8657,
      "essay": 8658,
      "promises": 8659,
      "ration": 8660,
      "yle": 8661,
      "quis": 8662,
      "swung": 8663,
      "hypothesis": 8664,
      "observer": 8665,
      "labelled": 8666,
      "fascinating": 8667,
      "greece": 8668,
      "witnesses": 8669,
      "collapsed": 8670,
      "enquiries": 8671,
      "slam": 8672,
      "cture": 8673,
      "tily": 8674,
      "shelf": 8675,
      "lished": 8676,
      "imagin": 8677,
      "travellers": 8678,
      "whisky": 8679,
      "hollywood": 8680,
      "faint": 8681,
      "spectrum": 8682,
      "constitute": 8683,
      "advisory": 8684,
      "karen": 8685,
      "aboration": 8686,
      "trades": 8687,
      "holland": 8688,
      "careers": 8689,
      "raced": 8690,
      "gia": 8691,
      "socialism": 8692,
      "wounded": 8693,
      "kh": 8694,
      "sympathetic": 8695,
      "adjac": 8696,
      "crafts": 8697,
      "oven": 8698,
      "congrat": 8699,
      "matt": 8700,
      "roses": 8701,
      "mano": 8702,
      "spont": 8703,
      "tournament": 8704,
      "consistently": 8705,
      "flavour": 8706,
      "bishops": 8707,
      "senses": 8708,
      "intensity": 8709,
      "soc": 8710,
      "dual": 8711,
      "drag": 8712,
      "peaceful": 8713,
      "commo": 8714,
      "themes": 8715,
      "transformed": 8716,
      "hunter": 8717,
      "bases": 8718,
      "spotted": 8719,
      "kilo": 8720,
      "poured": 8721,
      "explosion": 8722,
      "solely": 8723,
      "tat": 8724,
      "neth": 8725,
      "kissed": 8726,
      "observe": 8727,
      "nationally": 8728,
      "hither": 8729,
      "apprent": 8730,
      "ouch": 8731,
      "paths": 8732,
      "geographical": 8733,
      "cough": 8734,
      "lemon": 8735,
      "lotte": 8736,
      "intervals": 8737,
      "perip": 8738,
      "hostile": 8739,
      "knitting": 8740,
      "rated": 8741,
      "mexico": 8742,
      "ancies": 8743,
      "torn": 8744,
      "simplif": 8745,
      "respects": 8746,
      "rell": 8747,
      "mineral": 8748,
      "broadly": 8749,
      "promising": 8750,
      "hew": 8751,
      "haul": 8752,
      "determining": 8753,
      "alert": 8754,
      "catherine": 8755,
      "ttes": 8756,
      "performing": 8757,
      "adjacent": 8758,
      "publicly": 8759,
      "tings": 8760,
      "bleed": 8761,
      "appeals": 8762,
      "atories": 8763,
      "explanations": 8764,
      "argent": 8765,
      "merch": 8766,
      "convic": 8767,
      "traditions": 8768,
      "fits": 8769,
      "colum": 8770,
      "kov": 8771,
      "glimp": 8772,
      "lev": 8773,
      "bruce": 8774,
      "bucking": 8775,
      "diox": 8776,
      "medit": 8777,
      "examining": 8778,
      "apolog": 8779,
      "privilege": 8780,
      "fid": 8781,
      "facilit": 8782,
      "sno": 8783,
      "tobac": 8784,
      "abling": 8785,
      "guided": 8786,
      "laying": 8787,
      "colleague": 8788,
      "performances": 8789,
      "opponents": 8790,
      "loco": 8791,
      "absorbed": 8792,
      "prompted": 8793,
      "maur": 8794,
      "competitors": 8795,
      "historians": 8796,
      "xter": 8797,
      "chol": 8798,
      "retro": 8799,
      "contempl": 8800,
      "grinned": 8801,
      "peculiar": 8802,
      "commerce": 8803,
      "propriet": 8804,
      "mosa": 8805,
      "gues": 8806,
      "factories": 8807,
      "predictable": 8808,
      "competent": 8809,
      "detective": 8810,
      "dangers": 8811,
      "jona": 8812,
      "relates": 8813,
      "stops": 8814,
      "passive": 8815,
      "horrible": 8816,
      "therap": 8817,
      "gla": 8818,
      "parking": 8819,
      "extending": 8820,
      "defendants": 8821,
      "inject": 8822,
      "basket": 8823,
      "fitness": 8824,
      "toilet": 8825,
      "jonathan": 8826,
      "saint": 8827,
      "melan": 8828,
      "lump": 8829,
      "magnetic": 8830,
      "hamilton": 8831,
      "linking": 8832,
      "emerging": 8833,
      "dub": 8834,
      "yn": 8835,
      "biscu": 8836,
      "widow": 8837,
      "forthcoming": 8838,
      "depressed": 8839,
      "feminis": 8840,
      "woke": 8841,
      "trapped": 8842,
      "ambitious": 8843,
      "potatoes": 8844,
      "coin": 8845,
      "chaos": 8846,
      "adverse": 8847,
      "aco": 8848,
      "prede": 8849,
      "nerve": 8850,
      "jealous": 8851,
      "treating": 8852,
      "breakdown": 8853,
      "oriented": 8854,
      "robinson": 8855,
      "chess": 8856,
      "bedrooms": 8857,
      "diabet": 8858,
      "bend": 8859,
      "kat": 8860,
      "volumes": 8861,
      "actively": 8862,
      "tribunal": 8863,
      "conspir": 8864,
      "pursuit": 8865,
      "clouds": 8866,
      "slim": 8867,
      "mov": 8868,
      "pockets": 8869,
      "crude": 8870,
      "gen.": 8871,
      "pump": 8872,
      "stained": 8873,
      "challenged": 8874,
      "handicapped": 8875,
      "elaborate": 8876,
      "locks": 8877,
      "cling": 8878,
      "promoted": 8879,
      "requested": 8880,
      "robe": 8881,
      "illusion": 8882,
      "prec": 8883,
      "delegates": 8884,
      "seventeenth": 8885,
      "sword": 8886,
      "attributed": 8887,
      "recruitment": 8888,
      "portfolio": 8889,
      "predecess": 8890,
      "identifying": 8891,
      "disturbed": 8892,
      "matrix": 8893,
      "capture": 8894,
      "offensive": 8895,
      "directory": 8896,
      "euv": 8897,
      "cheltenham": 8898,
      "scoring": 8899,
      "kal": 8900,
      "phan": 8901,
      "milton": 8902,
      "methodo": 8903,
      "renewed": 8904,
      "sang": 8905,
      "barrier": 8906,
      "seventh": 8907,
      "omin": 8908,
      "phones": 8909,
      "raine": 8910,
      "counties": 8911,
      "imprison": 8912,
      "'em": 8913,
      "lihood": 8914,
      "shoe": 8915,
      "ipp": 8916,
      "lum": 8917,
      "prus": 8918,
      "cylind": 8919,
      "franco": 8920,
      "folded": 8921,
      "dul": 8922,
      "eleph": 8923,
      "protestant": 8924,
      "avenue": 8925,
      "nails": 8926,
      "rover": 8927,
      "colo": 8928,
      "pregnancy": 8929,
      "scandal": 8930,
      "lil": 8931,
      "notable": 8932,
      "miner": 8933,
      "operator": 8934,
      "fuck": 8935,
      "restaurants": 8936,
      "vern": 8937,
      "freely": 8938,
      "mistakes": 8939,
      "scarcely": 8940,
      "cort": 8941,
      "arte": 8942,
      "brac": 8943,
      "nowad": 8944,
      "charlotte": 8945,
      "reveals": 8946,
      "penetr": 8947,
      "asha": 8948,
      "buses": 8949,
      "azz": 8950,
      "columns": 8951,
      "nowadays": 8952,
      "oy": 8953,
      "ami": 8954,
      "artistic": 8955,
      "submit": 8956,
      "scattered": 8957,
      "delegation": 8958,
      "plural": 8959,
      "croat": 8960,
      "adoption": 8961,
      "expanding": 8962,
      "uten": 8963,
      "aggregate": 8964,
      "illustrate": 8965,
      "knight": 8966,
      "dependence": 8967,
      "statute": 8968,
      "alike": 8969,
      "jenny": 8970,
      "poems": 8971,
      "suspicion": 8972,
      "bronze": 8973,
      "revised": 8974,
      "linear": 8975,
      "physic": 8976,
      "shu": 8977,
      "disper": 8978,
      "tempt": 8979,
      "belonged": 8980,
      "rivals": 8981,
      "circulation": 8982,
      "annoy": 8983,
      "jeff": 8984,
      "rh": 8985,
      "couples": 8986,
      "chelsea": 8987,
      "inherited": 8988,
      "urge": 8989,
      "northampton": 8990,
      "killer": 8991,
      "chase": 8992,
      "murdered": 8993,
      "promoting": 8994,
      "intra": 8995,
      "lincol": 8996,
      "definite": 8997,
      "wyn": 8998,
      "rightly": 8999,
      "probability": 9000,
      "drops": 9001,
      "vial": 9002,
      "mobility": 9003,
      "unfortunate": 9004,
      "prevention": 9005,
      "consultants": 9006,
      "helicop": 9007,
      "assure": 9008,
      "bears": 9009,
      "fortnight": 9010,
      "handicap": 9011,
      "hitherto": 9012,
      "peripher": 9013,
      "strings": 9014,
      "surviving": 9015,
      "kicked": 9016,
      "erup": 9017,
      "disputes": 9018,
      "borrowing": 9019,
      "suite": 9020,
      "quit": 9021,
      "lining": 9022,
      "neuro": 9023,
      "orchest": 9024,
      "johnny": 9025,
      "liness": 9026,
      "dragged": 9027,
      "ffle": 9028,
      "wisdom": 9029,
      "yar": 9030,
      "molecules": 9031,
      "annu": 9032,
      "archbishop": 9033,
      "disciplinary": 9034,
      "appreciated": 9035,
      "fierce": 9036,
      "atus": 9037,
      "deen": 9038,
      "odds": 9039,
      "carib": 9040,
      "blown": 9041,
      "technologies": 9042,
      "investigated": 9043,
      "ptive": 9044,
      "idi": 9045,
      "wning": 9046,
      "volcan": 9047,
      "exploration": 9048,
      "buckingham": 9049,
      "discharge": 9050,
      "corbett": 9051,
      "needle": 9052,
      "scales": 9053,
      "aa": 9054,
      "lectures": 9055,
      "replacing": 9056,
      "allies": 9057,
      "itz": 9058,
      "harvest": 9059,
      "mistress": 9060,
      "cun": 9061,
      "inhibit": 9062,
      "entre": 9063,
      "finishing": 9064,
      "brighton": 9065,
      "convincing": 9066,
      "soph": 9067,
      "socially": 9068,
      "rabbit": 9069,
      "abnormal": 9070,
      "endless": 9071,
      "kenneth": 9072,
      "regardless": 9073,
      "ici": 9074,
      "locate": 9075,
      "motivation": 9076,
      "vendor": 9077,
      "iso": 9078,
      "vessels": 9079,
      "bias": 9080,
      "hungary": 9081,
      "switzer": 9082,
      "orchestra": 9083,
      "equality": 9084,
      "communicate": 9085,
      "invariably": 9086,
      "peoples": 9087,
      "thel": 9088,
      "tops": 9089,
      "forbid": 9090,
      "arous": 9091,
      "lincoln": 9092,
      "hod": 9093,
      "exclusion": 9094,
      "brussels": 9095,
      "adviser": 9096,
      "quote": 9097,
      "percept": 9098,
      "shepher": 9099,
      "dramatically": 9100,
      "arriving": 9101,
      "sporting": 9102,
      "commissioned": 9103,
      "shade": 9104,
      "correspondence": 9105,
      "thigh": 9106,
      "anderson": 9107,
      "norway": 9108,
      "pays": 9109,
      "reaches": 9110,
      "tanks": 9111,
      "tobacco": 9112,
      "switzerland": 9113,
      "instantly": 9114,
      "damaging": 9115,
      "shallow": 9116,
      "corps": 9117,
      "lawn": 9118,
      "sacrif": 9119,
      "publishers": 9120,
      "aberdeen": 9121,
      "lud": 9122,
      "minimal": 9123,
      "buzz": 9124,
      "differently": 9125,
      "indicating": 9126,
      "profitable": 9127,
      "adapted": 9128,
      "anony": 9129,
      "preval": 9130,
      "investments": 9131,
      "packages": 9132,
      "hereford": 9133,
      "workforce": 9134,
      "belg": 9135,
      "repet": 9136,
      "czecho": 9137,
      "caf": 9138,
      "operators": 9139,
      "darwin": 9140,
      "empirical": 9141,
      "chy": 9142,
      "corners": 9143,
      "interrupted": 9144,
      "moderate": 9145,
      "biz": 9146,
      "barrel": 9147,
      "condemned": 9148,
      "o.": 9149,
      "enabling": 9150,
      "aro": 9151,
      "michel": 9152,
      "vivid": 9153,
      "qualification": 9154,
      "tomat": 9155,
      "gravel": 9156,
      "stimulus": 9157,
      "counting": 9158,
      "swiss": 9159,
      "notor": 9160,
      "enthusiastic": 9161,
      "exercised": 9162,
      "bothered": 9163,
      "barnes": 9164,
      "kinnock": 9165,
      "covent": 9166,
      "disability": 9167,
      "mersey": 9168,
      "inclined": 9169,
      "sne": 9170,
      "dismissal": 9171,
      "inhabitants": 9172,
      "seeks": 9173,
      "midland": 9174,
      "believing": 9175,
      "spic": 9176,
      "drift": 9177,
      "populations": 9178,
      "execution": 9179,
      "validity": 9180,
      "descriptions": 9181,
      "issa": 9182,
      "troubles": 9183,
      "shipping": 9184,
      "pursued": 9185,
      "crust": 9186,
      "norwich": 9187,
      "incidents": 9188,
      "championships": 9189,
      "tribute": 9190,
      "shelter": 9191,
      "hud": 9192,
      "andra": 9193,
      "igen": 9194,
      "popularity": 9195,
      "desktop": 9196,
      "seman": 9197,
      "acies": 9198,
      "intentions": 9199,
      "gm": 9200,
      "abund": 9201,
      "mpson": 9202,
      "appointing": 9203,
      "journ": 9204,
      "chuck": 9205,
      "aun": 9206,
      "fitz": 9207,
      "frost": 9208,
      "maturity": 9209,
      "byn": 9210,
      "bored": 9211,
      "transmission": 9212,
      "proportions": 9213,
      "synthesis": 9214,
[...]
